[PAD]
[EOS]
[UNK]
[CLS]
[SEP]
[MASK]
,
.
àwọn
tó
tí
n
ń
pé
ó
ṣe
ni
ní
ò
wó
ti
máa
kan
sì
sí
a
fi
kí
ló
jé
bá
è
lè
fún
wọn
náà
kò
rè
láti
àti
kó
bí
sọ
:
“
”
ohun
run
-
nínú
wà
o
?
wa
ọló
lọ
ẹ
lé
wá
jèhófà
rí
yìí
rò
mi
rẹ
nígbà
gbogbo
ọmọ
èèyàn
mú
mo
nípa
ìwé
ká
yóò
pò
ọ
tá
gbé
ẹni
í
ara
—
nà
ayé
bíbélì
mó
i
bé
á
yìn
jésù
fé
é
mí
iṣé
mọ
wọ
wò
jẹ
tún
nn
èyí
tàbí
di
nítorí
dá
gbà
kọ
pè
kì
gbó
bó
wo
àmó
òun
èdè
lára
lórí
lú
pa
ọdún
gé
ojú
ilé
mò
yẹ
gba
inú
[
]
lo
yẹn
ràn
hàn
ẹlé
to
dò
ilè
an
mé
tè
gan
ìgbà
lì
irú
ta
kàn
bè
la
yín
kristẹni
ìyẹn
(
)
dé
si
ọkàn
1
rìí
té
ìjọba
má
ka
táwọn
dà
ibi
jù
pe
;
ènìyàn
ké
èmi
!
rere
ìwà
ìwọ
jọ
torí
ìlú
un
pàtàkì
ṣé
ọba
sò
bẹ
sílè
báwo
orílè
ṣè
mímó
ọjó
awọn
lù
rọ
jáde
bíi
wé
ìfé
sìn
‘
lati
’
àpẹẹrẹ
àtàwọn
ará
míì
bi
lójú
ba
fun
àwa
kúrò
lò
ju
mu
orí
ọkùnrin
pó
àkókò
ṣẹlè
olúwa
wí
tò
ati
ṣeé
nu
awon
ìjọ
2
lẹ
àwòrán
títí
dùn
ńlá
ré
só
dó
ìdí
báyìí
ko
làwọn
fààní
mìíràn
ṣì
kú
orúkọ
ńṣe
naa
ronú
ìdílé
pẹ
síbè
obìnrin
ìṣòro
jó
èrò
padà
ogun
3
gẹ
dúró
òbí
ẹnì
tiè
kristi
à
nyí
láàárín
ra
òfin
méjì
ṣùgbó
owó
e
##,
le
túbò
4
ọlọ
ki
ìmò
káwọn
fara
yí
ún
ọkọ
ètò
ìgbàgbó
kún
nífè
ìgbésí
fáwọn
5
nìyẹn
yin
dára
nìkan
nìdí
tán
díè
/
sínú
omi
ipò
níbè
tẹ
ísíré
rùn
6
fà
yoo
agbára
arákùnrin
ìsìn
wàá
iṣẹ
ṣiṣé
baba
sé
se
fẹ
bò
rù
tì
ọjọ
yà
tuntun
ìlànà
yọ
oúnjẹ
ṣó
túmò
da
kà
níbi
8
dáadáa
jú
ìròyìn
dún
ninu
rin
ikú
nì
tilè
ṣùgbọ
ìbéèrè
bàbá
òtító
rárá
ṣẹ
ilẹ
de
won
yàtò
10
àpó
fa
oṣù
àní
dáfídì
pọ
sítélì
béèrè
7
láwọn
là
ran
dájú
tòótó
12
kéèyàn
kù
kejì
ọwó
ṣàlàyé
11
9
ìtàn
15
wàásù
gbọ
bù
sún
àn
kódà
àpilè
apá
ile
ró
kankan
wù
rán
kọjá
13
ya
pàápàá
rún
rántí
gbàdúrà
rìn
14
iye
․
sátánì
bóyá
àkó
ìhìn
ìyàwó
pinnu
látinú
dáa
fúnra
òkè
eto
téèyàn
nílò
tíì
ìyá
àrùn
tọ
ọgó
láyé
gbò
17
àdúrà
síwájú
kè
lágbára
ìwàásù
igi
òní
sin
16
àmì
ẹsẹ
yá
àṣà
ìtó
ọkò
sáwọn
já
sè
ìránṣé
dọ
ọgbó
ẹgbẹ
bákan
aya
tun
yàn
bójú
lori
so
jòhánù
sábà
naijiria
bọ
yorùbá
yii
lónìí
mósè
orin
bàa
ṣáájú
sórí
jè
ẹnu
sáàmù
fojú
yè
àlàáfíà
maa
jí
ìjọsìn
àṣẹ
pétérù
olóòótó
aṣáájú
•
òwe
wáyé
gbádùn
mẹ
aṣọ
ṣíṣe
lórílè
róòmù
júù
18
ẹgbé
iwájú
oun
àlàyé
mù
kedere
ìpàdé
rọrùn
ipa
àgùntàn
san
dàgbà
án
dáhùn
àyà
táa
àlùfáà
méjèèjì
tà
ede
balè
yan
sùn
púpò
bà
àjọṣe
kékeré
b
ri
búburú
alàgbà
ìgbéyàwó
nù
hún
kẹ
ìṣe
19
bo
òdodo
lóòótó
ẹjó
òótó
àgbà
kìíní
gbè
lóye
ìwádìí
oju
eré
nípasè
ìyè
ìpinnu
ìwò
ìṣè
darí
ayò
eyi
nílé
dìde
onírúurú
nílè
oòrùn
òjíṣé
lóde
burú
ẹlòmíràn
mátíù
20
kókó
bùn
burúkú
dípò
21
ìké
àsọté
láyò
je
lábé
àwùjọ
ẹran
àjò
##a
ìrètí
24
débi
gbe
òkun
aráyé
ẹgbè
hùwà
amé
wòlíì
ọwọ
ríkà
pèsè
láé
the
olórí
ísírẹ
parí
nìṣó
yò
jà
ì
ṣoṣo
ín
ìran
arábìnrin
nílùú
sá
níwájú
gè
gbìyànjú
gbẹ
ẹbọ
hébérù
ọmọdé
pe,
níwò
ibè
fọwó
##e
22
kun
àìsàn
sànmánì
lán
iná
idibo
òkú
fò
ẹrú
ìsọfúnni
aare
ìbè
ọmọbìnrin
àgbègbè
pátápátá
ìlérí
ọrọ
òróró
rúndún
ga
ohunkóhun
re
múra
kíyè
jò
fífi
èṣù
sílẹ
yé
àjọ
tiwa
ìbùkún
23
aláṣẹ
yoruba
*
ṣá
ìjà
áńgé
fó
retí
ìdáhùn
jàn
gun
of
owo
sàn
ọmọkùnrin
tú
mélòó
àpótí
ogún
aísáyà
ná
èyíkéyìí
ro
óò
fè
tètè
hù
ipá
sókè
kàkà
ànímó
ṣí
ábúráhámù
fúnni
déédéé
sẹ
orile
ìtè
po
èso
tọkọtaya
aké
gidi
ìrànló
ìsàlè
ìyà
jerúsálé
gá
ṣàkóso
dandan
ẹranko
ṣètò
gíga
ìdájó
ẹniké
kárí
##i
sapá
pípé
gbàgbé
##o
òye
àpéjọ
méje
ẹlòmíì
25
lá
kéré
òpin
tàn
oògùn
jíròrò
##n
pàdé
láàyè
jóòbù
àbí
eniyan
dín
màá
ohùn
ríńtì
jinlè
dáàbò
ṣi
ṣòro
ìtumò
ilu
lédè
lúùkù
lu
tímótì
28
ọmọlé
waye
èké
orile-ede
dájúdájú
nǹkan
ààbò
##ọ
rú
òn
dì
pín
omo
báwọn
àárín
ọgbà
ìgbé
mímọ
lákòókò
ngàn
ṣò
tímó
ọdun
##ẹ
olùkó
ipinle
ibo
dàá
in
láìsí
orílẹ
jókòó
rèé
ìgbìmò
sílé
ipinlẹ
ewu
ìmọ
borí
síbi
oko
ògo
wọlé
máà
gomina
wàhálà
-èdè
lasiko
dè
tan
ijoba
ádámù
yanjú
iko
ú
odò
##s
dojú
ìrè
26
fù
ìṣẹ
ẹsè
buhari
igba
káàkiri
àgbáyé
ọlá
kiri
àádó
s
òde
egbe
ìlà
olúkúlùkù
ọrẹ
bbc
gíríìkì
kalè
ijọba
naa,
ìṣó
ńpìlì
tàwọn
ṣèlérí
fọ
29
wè
mà
márùn
dárí
nipa
àyè
létí
mọyì
látò
júdà
kíkún
aarẹ
ìpínlè
tiwọn
nyẹn
olódodo
wákàtí
ọrò
gbólóhùn
fíìsì
àánú
òmìnira
àkọsílè
nigba
ìté
dókítà
ìṣípayá
míṣó
lókun
31
àgbàlagbà
gidigidi
ṣèrìbọmi
ẹyẹ
ha
nnárì
sólómó
fọkàn
abẹ
dí
ku
##à
27
yọrí
àgbàyanu
gbangba
àtijó
wúlò
jì
ẹrù
##u
ìlera
pàá
ọtí
tóun
ma
dán
onífè
ìyanu
lásán
odun
dúpé
párádísè
pẹlu
new
jósé
ìbálòpò
tù
màmá
dẹ
ṣègbọràn
ìbínú
fetí
ìní
jìnnà
kùn
agbo
sílò
òṣìṣé
alábòójútó
ajo
àyíká
bábílónì
wu
gbọdọ
tútù
íjíbítì
tipa
ṣọ
pàṣẹ
sun
né
ẹlẹ
òkúta
ìrìn
àìnípè
bínú
ise
jíjé
lélè
kíkó
ìmó
kórìíra
ìṣé
kùnrin
tító
nitori
ọn
30
sùúrù
sísì
igbimo
lara
onímò
pelu
sísọ
ìrírí
yòókù
èlò
sáyé
ìṣàkóso
gó
tara
ìrántí
lọpò
gùn
##.
tu
han
àjín
nóà
tóbi
oro
yòówù
njú
gbára
agba
àgó
ńkó
líle
okun
nísinsìnyí
ru
yálà
ológun
olùṣó
táá
kojú
èrè
àjálù
iwe
inúnibíni
láìpé
tirè
##ì
síra
oríṣiríṣi
àìpé
kìkì
alágbára
gbá
lílo
33
jáwó
tèmi
èròjà
jeremáyà
ìró
bára
yẹra
pàtó
ète
májè
tọkàntọkàn
níyànjú
eeyan
ajọ
lòdì
ṣèrànwó
ayẹyẹ
and
mílíò
abé
ṣàyè
ṣègbéyàwó
dara
erékùṣù
mèsáyà
àṣìṣe
àbúrò
sán
ìrònú
ojúṣe
lójoojúmó
laarin
yi
àpèjúwe
àbájáde
ìgbàlà
line
ránṣé
múlè
igbó
kìlò
jákó
ofin
sa
péré
credit
ìṣò
àsọyé
àdánwò
màríà
béèyàn
ajé
òrìṣà
irin
kòkòrò
àkànṣe
púpọ
iroyin
wẹ
èé
íńtáné
ìbànújé
onítò
ṣíà
ṣàpèjúwe
wi
ìbílè
ìbámu
rà
éfà
dáníé
32
yó
òjò
ìpó
dẹni
rúbọ
éfésù
kẹta
sára
àìmọye
idije
ọgbọ
pá
ìkẹyìn
ìgbàanì
gún
síyẹn
gbin
sámúé
pọn
lọpọ
–
na
múnú
ipo
ìfẹ
nibi
ire
ìṣekúṣe
jámánì
jẹun
daràn
àrà
##é
ọpọlọ
ipade
ìyípadà
kúkú
akọ
ìtùnú
mìí
-o
díẹ
ìràpadà
nyi
láàrin
etí
látìgbà
kópa
àtàtà
pàdánù
ìránṣẹ
láyè
àwò
tilẹ
níṣìírí
ojúlówó
mọrírì
ìbáwí
wọnú
ibì
ère
níbẹ
wú
rẹpẹtẹ
bii
-iwe
nítòsí
oorun
##;
jọba
gẹgẹ
ìpín
yúróòpù
méjìlá
kalẹ
láìka
àríwá
osu
sú
ja
fàyè
lóhùn
ìgboyà
olú
kátólíìkì
##ò
oníwàásù
koko
ìdá
aláyò
ṣàn
"
u
ìsapá
iléeṣé
nídìí
gbígbé
ìtara
ìrora
lẹyin
ewì
fìdí
gúúsù
òǹkọ
ọjà
ìgbòkègbodò
onígbàgbó
lásìkò
bakan
àsìkò
idà
sípò
lépa
ìhà
ìyàtò
ji
ròyìn
áfíríkà
ile-ise
eko
oselu
aládùúgbò
ìrìbọmi
ìparun
tabi
jín
sòótó
adúróṣinṣin
kàwé
fìfé
olóró
máàkù
rì
kéde
iwa
fílípì
gòkè
gbìn
yàrá
ọgbò
ìyìn
lókè
jìyà
faransé
alákòókò
wúrà
ìdààmú
polongo
ẹnikẹ
obinrin
ìgbésè
ṣeré
pìwà
sóhun
epo
ìwàláàyè
ìdùnnú
bú
gò
bu
ṣáá
ẹja
rìnrìn
àfi
nba
iró
àlejò
onísáàmù
nìyí
lèyí
sójú
lógún
ẹṣin
nímò
funfun
nigeria
kúlè
òmíràn
àtúnṣe
mì
jóṣúà
òru
àníyàn
##ó
abúlé
wulè
##í
ẹgbẹẹgbè
dání
awo
ìwòsàn
èlíjà
màlúù
ìṣírí
jogún
agbaboolu
pẹpẹ
pípa
sọrọ
gbọn
ṣiṣẹ
##è
apc
dógún
olódùmarè
sìgá
láwùjọ
ṣáà
nkan
jákèjádò
asofin
pada
kíláàsì
aláìpé
37
níní
nile
aláìní
èwe
dídùn
ìkànnì
wáìnì
ori
kìlómítà
àtò
oṣelu
gege
gbáà
ogójì
hùn
34
òṣèlú
naijiria,
gàn
aago
kaèdè
lọwọ
ọpọ
para
lohun
alààyè
sile
pápá
àdúgbò
mímú
ìjì
ẹjọ
ṣubú
àkọ
ìkìlò
àjèjì
dun
nira
ṣugbọn
láṣẹ
ẹlẹgbé
##á
kéékèèké
dìgbà
oṣu
opó
lee
oríkì
olùdarí
lorile
sáré
ǹjẹ
àsè
oludije
ojo
york
yii,
kọrin
òfuurufú
ìkálẹ
òkùnkùn
tẹlifíṣò
yára
tayò
south
mímu
lorile-ede
léwu
ṣèwádìí
nàìjíríà
35
aláìsàn
ìkó
lápá
jade
gbéṣé
fìyà
ewé
sinmi
ìpínlẹ
orilẹede
dàbí
ìmúṣẹ
ìkà
ìjìnlè
àpò
tipé
kóun
bible
òdì
tóo
ẹní
yanturu
r
jérúsálẹ
ńbà
wípé
meji
alé
ńlán
irun
ìjíròrò
lòun
àṣírí
àá
forí
ebi
arìnrìn
ògiri
jáì
ayọ
nú
##ú
ìparí
mímò
míkà
orísun
ni,
bímọ
##y
lákò
ìsinmi
tẹnu
ibùdó
jékó
igbe
láì
lágbègbè
gbógun
abájọ
lojo
bìkítà
ṣinṣin
ṣẹlẹ
aye
akéde
adití
ṣàníyàn
##ù
olówó
agbaye
ẹbí
alákòóso
fáráò
##)
níjàánu
iru
bíbá
ìràwò
ìdárayá
lowo
ibẹ
afé
lówó
léfì
sípàdé
pútà
ahó
ìṣèlú
tìtorí
pípéye
olóye
ayérayé
nígbèésí
òpó
ìfaradà
pàfiyèsí
ìsinsìnyí
idagbasoke
ààrẹ
inu
fàdákà
muhammadu
hé
sáà
ìwòye
bẹẹ
èkejì
hu
adari
ẹwà
àgbè
dìídì
báa
lójúfò
rọra
pátá
ojoojúmó
ìkò
ogunló
fídíò
ìdánilójú
leyin
du
nígbàgbó
àtẹ
gbòòrò
ẹnìkan
àlá
sẹẹsẹ
ero
agbegbe
ìjé
irúgbìn
ìtura
àkòrí
ìpínrò
john
iléèwé
àjàrà
mát
àkọlé
àdéhùn
tọrọ
wíwá
òkèèrè
àìní
báni
rìṣà
pataki
kára
kii
jíjẹ
àgọ
sígbà
lárugẹ
aráàlú
àṣeyọrí
gorí
dọọdún
ihò
fòpin
silẹ
ráyè
ikọ
ṣeyebíye
ládùúgbò
ye
batisí
àìlera
rúùtù
rédíò
oníwà
hìn
dáwó
ṣàṣeyọrí
ìṣúra
ejò
aṣojú
àbá
kólósè
lítíréṣọ
ìbẹ
odi
báà
may
sm
olè
ìpè
àpáta
táwa
ṣojú
ìrísí
níkẹyìn
japan
gílíádì
ẹyọ
ìnira
ọlọpaa
ìbátan
dù
búré
ọkan
síbẹ
asán
yàtọ
##un
watch
society
sunkún
akò
osise
fipá
april
gígùn
soro
alára
keji
ere
bẹrẹ
ọnà
dópin
ìtẹ
àṣàrò
miran
onídàájó
aabo
lágbàáyé
gbèsè
látàrí
kuro
bọlá
àtakò
nídè
nilu
ami
nítumò
ṣàkóbá
ìṣòtító
àfikún
nó
kede
dúdú
ìbò
olùfé
ibeere
fìgbà
agbègbè
lábẹ
city
abo
iyebíye
bani
pupa
igbakeji
fíìmù
bayii
tìfé
idi
pdp
jagun
kìí
ìfò
éjíbítì
bùkátà
ìrànwó
ademola
40
ìṣàpẹẹrẹ
tower
lọdun
awọ
ìdẹwò
yege
aláwò
tipasè
is
lílọ
bìnrin
àgbèrè
fẹsè
ṣàṣàrò
fèsì
ṣàìsàn
ṣàpẹẹrẹ
ìdánwò
odindi
níbí
ogbeni
ṣeni
september
ìdájọ
wádìí
mojuto
niluu
jùlọ
oríṣi
mọdé
àkàwé
inec
yunifásítì
tíọ
lẹni
dénú
òtítọ
àdíré
múni
tìrẹ
igbimọ
apapo
ìbàjé
tórúkọ
minisita
lọjọ
alaga
oyè
##an
àfiyèsí
kúkúrú
ìṣègùn
j
yìnwá
onírè
ìré
kígbe
àmọ
pẹlẹbẹ
egungun
##t
ọsirélíà
lómìnira
ṣàkíyèsí
oore
làwó
ife
jálè
gbilè
ìkún
kùnà
lérò
fòfin
diutarónómì
ọkà
àbójútó
kíá
farisí
olùgbé
##:
òwò
tirẹ
ṣàdédé
nírú
gbéra
december
dènà
aṣofin
kété
##ra
òpìtàn
ṣàtúnṣe
kíkọ
arúgbó
ìdúróṣinṣin
àyípadà
panṣágà
ṣèpinnu
ìbí
ìgbéraga
tẹsalóníkà
kẹrin
ìkórìíra
síkò
##in
ẹkún
olùjọsìn
nipinlẹ
38
1914
ìgbàgbọ
omijé
jèrè
iyì
láfikún
ìjìyà
okùn
léraléra
yọjú
kánádà
ọpọlọpọ
ìdáríjì
àfojúsùn
oníṣègùn
salaye
lórúkọ
fí
fe
##ni
eleyi
ọmọnìyàn
wíwo
loju
òsì
sípéènì
olùṣàkóso
débè
tẹlifóònù
october
sábé
kírísítì
oyin
kíkà
eleto
as
ríran
kóra
wíwà
keje
iwadii
ńláńlá
ìpìlè
oníṣòwò
gbóríyìn
gbèjà
dibo
tóótun
january
bere
lemó
lai
ìkórè
àpáàdì
jákọ
ṣalaye
àtọmọdó
tanú
brazil
kopa
david
ìdálé
sowó
rá
kísódù
gálátíà
ìtòlé
éèdì
nísàlè
aje
ọdẹ
ibùgbé
délè
ọna
òṣùpá
orukọ
jìn
gbójú
agbẹnusọ
níye
dídá
koju
járí
july
##le
atúmò
ariwo
òtòṣì
adájó
níbàámu
ítálì
rẹ,
láéláé
lápapò
june
sise
onígbọràn
isẹ
dárúkọ
agbabọọlu
kànlá
igbesẹ
éṣíà
kìnnìún
gan-an
pese
36
2019
òdòdó
ìtìjú
àjùmọ
lóyún
ṣàwárí
gbóná
atiku
##r
ìbọn
ẹyin
lèèyàn
august
káwa
síta
láìjé
jónà
##l
ọmọlúwàbí
ìmọrírì
march
ìrò
rín
orilẹ-ede
esi
àràádó
nírètí
gíríìsì
kíké
àtọkànwá
gù
íńdíà
titi
olori
níṣò
wíwàásù
ṣàrà
ìparapò
ọdọ
pamọ
nilé
ọlọrun
ìgbó
àbùdá
adé
ìnàjú
títóbi
tuni
itan
tálákà
gómìnà
aláàánú
africa
ísákì
àìtó
yìndà
ajá
lógo
gbéjà
ìta
ilana
kàyéfì
ìtumọ
títè
fúngbà
ìdajì
wàyí
títa
sunwò
nípò
amọ
miiran
àwọ
tako
abala
ojútùú
ṣèbè
jòh
gbajúmò
ìyàsímímó
gbígba
ìpilè
kálè
ìjẹ
àìlé
àfọwó
sísun
aládé
kíka
kánrin
fonọ
dánì
òtútù
lóbìnrin
lálé
ina
èlíṣà
tàlá
kálukú
fóònù
apè
òmùgò
ààlà
mutí
lóṣù
làwa
àyàfi
kán
44
ààfin
sídìí
ìpamó
sárà
rìnlá
fàlàlà
bíbí
##d
ibòmíràn
yo
kúnré
##h
èwo
gọ
édé
kénáánì
ifẹ
gbáko
bàtà
ọpé
àwo
sáàárín
jo
tààràtà
rìndínlógún
ìló
ètè
ilera
gbájú
fo
dójú
tìẹ
amò
òṣì
benin
akitiyan
àfonífojì
ẹkùn
àpapò
nehemáyà
méjìdínlógún
alátakò
èkó
samáríà
ifesewonse
báálì
ẹsun
mẹta
iṣẹlẹ
fiyè
aginjù
ọlọgbó
ṣèwà
àtohun
amágé
ìsíkíé
ìkóra
wàrà
pariwo
pani
gbàrà
fínra
fani
ìdè
tojú
ìrékọjá
super
láìfi
kóo
bayii,
ìyọnu
ìgbẹ
payá
násì
45
àgàgà
nla
ilú
pọkàn
bílíò
ìyó
ìyàlé
ìgbọ
tẹrí
m
ileeṣẹ
gbédègbé
##mọ
látorí
dòní
dáradára
nígbàkigbà
november
fọn
ọmọnìkejì
ẹgbàá
àtè
yípadà
ńké
ṣàgbéyè
àfiwé
yìnyín
state
olùkọ
asoju
41
##er
ẹmi
onímọ
ona
lójijì
##lẹ
ṣòfò
ogbó
juwó
tii
eni
42
tinútinú
níléèwé
móábù
ṣàánú
kèfèrí
isele
oṣiṣẹ
jawe
fúùfù
ṣàìgbọràn
ìjòyè
ìbílẹ
láàmú
ìsádi
saa
níhìn
tinú
ofurufu
paapaa
dúpẹ
bì
àkóso
tójú
asiko
olubori
góńgó
gbòde
tàdínlógún
ija
eyín
alábàáké
yàyà
sílùú
oyún
l
kan,
gbéni
ìbá
tùràrí
tín
sunday
májẹ
39
##m
ìmárale
olùrànló
ìyókù
àsọjáde
february
nímùúṣẹ
àárò
rorò
duro
yíò
iya
ijó
##on
árónì
tobi
lásárù
iku
níṣé
látọwó
fẹnu
ìyàn
ìpolongo
mítà
eka
kíyèsí
kaakiri
há
etíkun
ṣohun
nígbè
ìdíje
àjọyò
ekun
òyìnbó
ìlẹ
àárin
tesiwaju
ṣèṣekúṣe
tábìlì
kẹsè
ibojì
ewéko
d
òwúrò
àkájọ
àkàrà
nílẹ
lóru
kúnjú
rírí
kúfè
dáná
jẹjẹrẹ
1999
ọlò
lorilẹede
boko
tutù
fọgbó
##ùn
rùn-ún
kábàámò
korea
búra
koríko
ibí
hánà
aláìlera
iléiṣẹ
ìdarí
àgbàlá
nsì
gangan
àṣekára
héb
gbígbóná
darúgbó
ọrùn
ṣèdájó
oró
láìní
ibòmíì
bàá
apapọ
ṣú
ṣíwájú
àbùkù
papa
on
ologun
abuja
àtèyí
àtijọ
sita
gbígbà
##ta
ṣókí
tòun
karí
for
##re
ìgbèkùn
wúwo
onígboyà
jùdíà
fòye
yááfì
ipolongo
dádì
ọmọ-ẹ
sekaráyà
nilẹ
gbo
ìkọ
énó
yani
london
igbese
tàbi
pílátù
padanu
ntúnwò
adágún
ìpèsè
nipinle
márùn-ún
labẹ
alaafia
2000
ọmọdékùnrin
ààtò
ránṣẹ
náómì
eléyìí
##),
##de
ìṣọ
ìdánilé
ológo
jiyàn
fura
ààyè
àkópò
pari
bámidélé
ṣamò
wálé
tract
odo
kíákíá
james
gálílì
emi
aṣé
aláìgbàgbó
ńtíkó
ìmọtara
witnesses
sóde
pìtàn
naira
ayó
ató
ọgọ
ìgbádùn
nnkan
ìdàgbàsókè
èsì
ásíríà
sọni
jehovah’s
##ṣẹ
wérò
tónítóní
sójà
olóṣèlú
níyà
afẹ
##”
sín
forúkọ
dúnrún
aláìlé
2018
ìránnilétí
olu
kíróníkà
##k
ọdọọdún
àbáyọ
tím
sugbon
péye
eko,
kéènì
hó
lóko
kẹfà
ògbógi
ìṣeré
síbì
sanwó
jọra
dorí
brooklyn
boolu
ìsàlẹ
ẹrọ
èyíinì
wàláà
oloye
ọpẹ
àárè
pét
poland
awuyewuye
òwúrọ
ìdáké
áhábù
wíwàníhìn
ijọ
bee
be
akoroyin
ólífì
ìlò
ìgbọràn
wahala
kànlé
igun
eagles
bíṣó
bárakú
agbe
ìnáwó
àté
àléébù
síni
láyà
àríyànjiyàn
àpéjọpò
yàwòrán
t
lawọn
kọsè
délé
ayo
##ti
ìjímìjí
àgbò
jónátánì
ẹkọ
ṣíwó
àpérò
túmọ
olùṣòtító
kín
gbàgbọ
2001
##jú
àròsọ
ohun,
iṣan
43
##ba
taló
oludari
langba
agbẹjó
##mi
póòpù
palè
mejeeji
kọjú
jíjinlè
hesekáyà
dórí
ẹhànnà
ìṣesí
níṣòro
mọkùnrin
látìn
ibà
agbawèrèmé
ìsìnkú
ìgbàlódé
kàndínlógún
gágá
dunjú
sanra
pin
oníṣó
káàdì
ṣà
àjàkálè
ribiribi
fífúnni
alẹ
onínúure
obi
jini
daju
bàlágà
##ko
ṣàṣìṣe
rara
julo
george
fawọn
##tì
ooru
irọ
ọkunrin
ẹbi
wa,
rírẹlè
ojúsàájú
kọlu
ṣètìlé
ògún
olùgbó
nwọ
kodò
dídi
bófin
##us
ṣàì
ìkejì
ìdúró
wọn,
tìkára
síríà
akoko
##na
ṣègbé
ìpalára
ábúrámù
sinu
lulè
jíjà
julọ
##se
ìgbò
àìmọ
olóyè
gbùngbùn
fikun
erin
##la
ìjákulè
oogun
no
awakò
siwaju
anfaani
50
ṣàkọsílè
ṣa
ìbé
ìbàlè
taratara
okan
ìṣísè
rẹyìn
eegun
adùn
jẹyọ
fáwẹ
fihan
erongba
aáwò
ṣètọrẹ
ìkòkò
èéfín
èdèkòyédè
áàkì
àádọ
soviet
nípàdé
málákì
gídíónì
48
ìtọ
áárónì
àlùmó
páṣíà
lílekoko
láàánú
awalè
ámósì
yíjú
yìnbò
yàgò
oníjè
ida
dáni
bojú
ayelujara
ẹrẹ
ṣíbẹ
ṣèpàdé
ńbé
òrùlé
sà
fífún
fìtara
tótó
súnmọ
sinimá
gi
edo
ọmọ-ogun
ìwo
bóo
ìtúmò
ìsọ
yán
gbani
asa
##kan
sólómónì
onílé
láre
iran
akọkọ
##ún
##wọ
àgbẹ
réré
olùjó
marun
ewúré
c
abubakar
world
robert
onítara
ojúgbà
léèrè
kọbi
kérésìmesì
iwọ
àwon
pérépéré
dáké
dari
ańgẹ
65
ìje
àìmó
àlìkámà
àjẹsára
oníṣẹ
haram
balẹ
ana
##2
ìtìlé
olùṣèwádìí
nàkọnà
jòsáyà
giga
fasiti
46
ọgbé
ẹkun
àwó
àga
láárí
gágun
china
ábúsálómù
nikan
mánásè
màtá
ijamba
halè
fàwọn
dúkìá
din
akọni
òpópónà
ìfòyemò
ègbé
pà
ewe,
baà
ìṣètò
yéé
niníṣè
kánkán
joseph
dábàá
ìṣí
ìrunú
kẹjọ
jalè
díwò
dokita
ẹgbàajì
ìwàkiwà
mè
hábákúkù
aláàbò
##si
níwà
lóríṣiríṣi
kwara
##0
##es
òòjó
àgbàdo
sítérì
oníṣé
lataari
jíjìn
ibudo
fọwọ
fílístínì
akanse
saaju
oríṣìíríṣìí
ipele
dije
òṣìṣẹ
àǹfààní
síi
ni:
f
ọhun
ẹṣẹ
ébé
àgàbàgebè
tẹlẹ
opo
ajíhìnrere
agogo
ọbẹ
ìdò
wúńdíá
mánigbàgbé
mejì
lodun
afó
##1
ṣáínà
ìgboro
àṣé
àmujù
lópin
báńkì
ìyò
àjàgà
maria
lékè
lulẹ
55
ìdán
wọṣé
united
paró
jìnnìjìnnì
gaara
eleyii
ìjìnlẹ
paul
national
lóore
fìwà
akẹ
##c
ẹgbẹrun
ìkésíni
ètùtù
nípasẹ
mulẹ
léèwò
ipinnu
gbayì
##lé
rèbékà
onídààmú
mìílò
lẹnu
iyò
international
gbogun
2002
##5
ìkókó
re,
jọjọ
abò
##9
ṣiyèméjì
yíká
oga
níwọ
mọṣé
ipenija
##wó
##sì
ìtajà
àkójọ
tínú
sítán
soju
níhà
igbá
hun
báyé
rìnlélógún
news
léfítíkù
káàtó
káyé
iyawo
ikùn
gbòn
ìyẹ
sábáàtì
onínú
oni
oke
lèrò
ila
ifá
1090
òórùn
ìpèníjà
tọwó
lílò
##4
##rin
ṣekú
ìyànjú
àforíjì
gbèrò
eréonítàn
ìrì
èbúté
ámónì
latari
fìtílà
ẹka
èdìdì
p.m.b
láàárò
h
##ye
yíyẹ
oloogbe
kànga
ikolu
bibeli
ìka
àtọwó
àtààbò
pálapàla
peter
kòté
késárì
júdásì
jósẹ
bàjẹ
beere
##7
##wa
##g
ìṣọwọ
ìkéde
pùròté
ojúkòkòrò
miló
kórè
iyè
fini
aísá
ìsoríkó
lóun
imú
fu
##wo
àkọsílẹ
yatọ
wọle
níbo
miliọnu
lálejò
apa
alága
ìyàtọ
àìṣòótó
àtìgbà
sábàá
nínéfè
nígbàtí
agbara
2003
ẹfolúṣò
ìṣirò
àgbéyẹ
olopaa
kọkọ
diẹ
adajọ
119
##3
##ka
ṣeun
títù
régé
all
60
##,000
##jẹ
ìwè
ìbànújẹ
èmí
tóó
tori
sísọni
jagunjagun
gbéyàwó
fèrèsé
ewúrẹ
bóásì
bill
akọrin
akin
##6
ọjọgbọn
ńbélé
ìfọ
wakò
sánmà
pilè
láìṣe
ijo
ibilẹ
daniel
ìrúbọ
ìpínyà
yoru
tóò
pópó
olùgbàlà
náwó
mimo
meje
kànbalè
bọọlu
agbofinro
##ro
ìmísí
ìlù
www.jw.org
tìrè
sínágó
sii
níbikíbi
kòtò
kudiẹ
dànù
aṣòfin
##en
ṣíṣeyebíye
william
tayọ
nebukadinésárì
lóòótọ
jòjòló
gbígbó
##ya
##sẹ
ṣebí
pupo
opolopo
oníròyìn
igbeyawo
##ri
ìlara
fín
aláìmọ
##kọ
##je
ṣòwò
ìwọra
yẹpẹrẹ
papọ
owe
meta
lóró
létòlétò
kánjúkánjú
irinajo
47
ńjámínì
ìmìtìtì
ásà
àkíyèsí
watchtower
tílé
péjọ
kérésì
iyèméjì
ibùsùn
dóko
òńkọ
ìbàdàn
èéṣe
yoòbá
lọna
jowú
hóséà
girama
fútà
bèèrè
##mù
##da
ìṣáájú
títì
tete
rẹwà
pennsylvania
olórin
ipese
idẹ
encyclopedia
'
ńbè
ìsè
yàmè
puró
mohammed
jéhù
ekuru
akọroyin
ìgbésẹ
titun
múná
látọkànwá
iṣu
filísínì
##ṣe
##ing
ìsò
rírìn
oríléeṣé
onísìn
nígboyà
láyìíká
fàájì
ariwa
ọfà
ìgbè
tiraka
russell
mẹrin
labe
imọ
gbàfiyèsí
dààmú
atunse
aláwọ
##ju
ṣèdíwó
ṣááju
ìríra
ìgbèríko
àdádó
sọnù
ayeye
##bọ
ọlè
ìpọ
èpò
àfihàn
olote
mọwó
léṣe
jáfáfá
dámò
charles
70
owú
nítòótọ
igberu
dájó
aájò
ḿpìlì
union
tìkò
sorí
olùbánisò
lèmi
bánábà
alárinrin
ìdẹkùn
èébú
sefanáyà
kásè
kulè
kinni
1950
##8
##yà
ìjókòó
àríyá
wúni
won,
síónì
sírà
olùwádìí
nígbèkùn
kápá
fidio
aláìṣòótó
ìdìbò
àìsí
oyo
michael
lárò
afọ
abiyamọ
##án
##àn
òmùgọ
àṣejù
àmúlò
àkóbá
tele
ráhábù
kọja
ekiti
asia
##di
ìlọsíwájú
ìjùmò
rówó
olójú
lilo
laye
kere
k
fìgboyà
egbòogi
##pọ
##jọ
símónì
pupọ
oloro
lójúmó
lòpò
irínwó
dáńgájíá
##to
##gun
ìrọ
ìgbómìnà
sódómù
rọgbọ
nibẹ
múlẹ
luther
bẹnu
ìgbìmọ
àgbá
te
rògbòdìyàn
kùdìè
ke
bóun
##rí
##al
ìrànlọ
ìpele
éfé
ègún
músé
mule
igbo
gbòò
aṣálè
atawọn
##v
##rò
wole
ukraine
olùyò
ibrahim
democratic
1998
##ín
##pa
ṣàjèjì
òjìji
ìfọkànsìn
éfúráímù
àkànlò
títayọ
níbì
ibodè
ìṣìnà
onímìísí
darapọ
bébà
amerika
2004
ọgbẹni
ọga
ṣèèṣì
ìgò
àgbààgbà
yio
we
tára
ríṣé
rora
oǹdó
oye
njẹ
kípé
fòyà
eye
afrika
ojogbon
mànàmáná
gbèrú
dúrójayé
baa
amofin
abadofin
àwòké
pààyàn
númérì
nísàn
látọkàn
jùmò
ireti
1919
##po
##ji
ṣèké
àwòkó
àgbélébùú
síṣé
sugbọn
látọdún
lárinrin
kíni
karùn
imo
gbọọrọ
fowó
ayaba
ísò
ìrẹ
ìdènà
àìgbó
winá
látọjó
iwosan
atẹ
aláìṣòdodo
##b
ṣenúnibíni
times
saraki
oba
nínu
kàmàmà
ikọlu
hán
fíìfíì
foju
dákẹ
aṣa
##íà
##bi
ẹnubodè
ṣiyè
tàdínló
ronu
oludibo
mimọ
isuna
gogoro
ge
akó
òṣèré
àìdáa
àtìpó
súre
sísò
níta
kúnnú
bàbà
alábàáṣiṣé
300001
##ia
ìrìnàjò
ìfara
republic
pòórá
olùwá
mary
el
dídì
##nu
ọmú
ṣébà
ìpíndó
àpèjẹ
àlọ
pọndandan
paris
ifigagbaga
gbiyanju
fóun
dupe
apẹja
aisan
agbéraga
2015
ìpànìyàn
tile
st
lona
ibadan
bárúkù
apero
apc,
alatako
1990
##nì
ọmọdébìnrin
tààrà
si,
ríronú
pàbó
nísinsìn
mójú
làákàyè
lagbaye
kete
igbalode
boya
arun
abajade
“a
ọṣẹ
ẹsin
òkìkí
òdìkejì
who
pàn
potogí
philippines
paraku
ojuse
mii
ihà
gbígbẹ
gbígbàdúrà
adìyẹ
##ng
##bo
ńlè
ìgbì
àkúnya
táyé
rìndínló
ranni
nilo
gọbọi
dan
agẹmọ
##'
##ìn
##rì
ṣu
ìnìkàngbé
ìbáké
áà
àwọsánmà
àná
yíyan
yáa
tòsí
school
pépé
lóhun
làjú
gí
dọmọ
orílé
nísinsin
láàárin
kànlélógún
knorr
irè
ganan
ahọ
òún
òùngbẹ
ìmúra
ìkankan
ìfè
wéra
rírú
ríkò
rii
omíyalé
netherlands
méjìdínló
jàre
g
ṣiṣe
ìyé
ìmúratán
okòwò
mọbìnrin
me
kúrú
bàjé
bibi
ṣíṣó
ìṣarasíhùwà
w
aṣẹ
amí
àmò
láá
káàbò
jóòótó
góòlù
fì
do
ami-ayo
2012
##te
##f
ṣayẹyẹ
ògbólógbòó
ìmoore
élì
àmúyẹ
lorúkọ
fagi
elo
atileyin
2011
1997
##run
ọrun
òwú
wewu
tẹra
tàbùkù
polówó
p
olorun
iwin
gúnlè
##’
àbọ
osinbajo
jíjí
##z
##sí
##ru
##ne
university
pdp,
paná
orilẹ
násárétì
nábálì
martin
kéréje
asò
##-
##rẹ
##ja
ìríjú
àpapọ
àdánù
yìngbé
wéwèé
títà
sísin
oja
nrán
janjan
finú
etiópíà
dídúró
buyì
ṣèpalára
rákélì
owewe
os
nii
mùsùlùmí
méjìlélógún
moscow
lọmọ
lápapọ
isokan
aseyori
america
akonimoogba
aarun
ìrònúpìwàdà
ronke
olónìí
olókìkí
múpò
kẹwàá
falè
aworan
arabinrin
ṣúgà
àjà
yìnbọn
yéni
sísàlè
márùndínlógójì
makedóníà
kíkankíkan
iwọde
ireland
ibile
fífé
egbò
adúróṣánṣán
2016
1945
##ki
ògbón
àlááfíà
àbò
rìnléló
richard
party
oniroyin
omo-ogun
oloṣelu
máṣe
koro
aláìmó
2014
##jo
##gba
##bà
ìṣúnná
àwárí
yangàn
tawọn
pésè
pàjáwìrì
oríkèé
márùndínló
loèdè
kíkorò
jíhìn
hẹ
fohùn
èémí
èrèlè
wọni
version
rajà
merin
lọ,
lódindi
léèmò
láṣọ
jíjó
jonathan
ọṣé
tírí
lájorí
fidi
dẹnu
congress
ata
asọ
amòye
2013
àfàìmò
tubo
ríi
okeere
odidi
másùnmáwo
mark
jóábù
ibikíbi
hitler
fá
by
##’s
##p
ìmí
yapa
wálè
tani
sámúsìnì
sipo
mèremère
láfiwé
kọkàndínlógún
ibasepo
ahmed
ọwò
ṣìké
èròn
àtinúwá
àbè
tágbára
runwá
leti
isoro
darandaran
bàn
ahoro
##lọ
ìpìlẹ
ìdúpé
àìṣòdodo
àsíá
wíwò
tẹni
tírú
oníhòòhò
ondo
míràn
kóòtù
kórà
jóná
gbajugbaja
dédé
até
agbégbé
51
49
2007
100
ìyọrísí
ìyapa
ìtìlẹyìn
ìrawó
ìgbàkigbà
sọdá
sàréè
nuwò
milionu
ike
ijiroro
atẹjade
2009
##mu
ńkọ
ńdà
àìgbọràn
tẹsè
tìdí
takọtabo
switzerland
ràkúnmí
oi
nṣe
méjìléló
lábúlé
kíkọyọyọ
kàlé
jùyẹn
jìbìtì
gusu
eléré
dìdàkudà
akẹkọọ
2006
##mo
##dì
ọmọde
ìwó
wáṣé
témi
pààrò
onímọtara
kikun
júúdà
ikede
híhù
gòláyátì
fúnrúgbìn
ṣọṣé
ísáákì
ìṣiṣé
yíyí
túútúú
tòrò
tàléló
takuntakun
oruko
mefa
lóri
awa
arọ
alhaji
afárá
ṣíṣàì
ṣaaju
ìpolówó
àyẹ
wáá
wáyè
tiyín
su
oníṣekúṣe
módékáì
kánjú
keta
jin
jaburata
gbámúṣé
dẹwó
die
arẹwà
agbéròyìnjáde
-ẹ
##ma
##ga
##ed
ṣara
ìtẹríba
ìtàgé
ìrìnnà
àtiṣe
tàlélógún
sámúẹ
seyi
níí
makinde
látòkèdélè
leè
jọpò
ják
fún-un
england
dunni
bíbéèrè
baálé
ayélujára
akowe
##yé
##do
ọmọléèwé
ńsónáǹtì
ìkówèésí
àwókù
wipe
síhà
sàn-án
lákọó
kọkànlá
kùtùkùtù
kíyèsíi
kíkan
jọjú
atóbiló
aláìkọlà
aburú
##lo
ọsẹ
ìgbàkígbà
àìrí
àyànfé
smith
olùfẹ
làálàá
kádàrá
history
gbodo
afirika
1995
##ónì
##we
##lè
##là
ẹtọ
ṣúlè
ṣírò
ǹkan
òkúdu
ìfihàn
ìdáná
áténì
àsálà
parun
ounjẹ
jíṣé
gboriyin
fihàn
araalu
apániláyà
alakoso
53
##ku
ẹnikẹni
ńtì
ìfọwó
àdánidá
yún
tẹjú
táráyé
thomas
níyàwó
idajọ
henry
fayé
eso
dídé
bomi
alárinà
akegbe
72
607
##élì
##kẹ
##el
ṣísè
ìhámó
ìbejì
èjìká
wòran
tùn
mídíánì
isẹlẹ
dálè
atejade
alátùn
ṣètìlẹyìn
ṣàtakò
ṣaláìní
òṣùwò
ìjábá
ìbàjẹ
édómù
èròkerò
àdàbà
wón
wádún
olóògbé
okùnfà
nhùwà
nawó
leke
karun
isere
fòòró
dùbúlè
california
2008
ṣìó
ìbúra
ìbímọ
ábígé
rutherford
pínyà
onípò
ogagun
níyì
lóòjó
láàyò
kérúbù
jíjìnnà
egberun
ajimobi
1939
##rọ
ńbẹ
ìgbatẹnirò
tábà
sọ,
rètí
pípèsè
oloselu
minista
káàánú
kejìlá
ibú
gbúròó
gbágbáágbá
fawon
dáyé
akópa
ìsopò
ìdìpò
ásáfù
àmín
uganda
tijú
sẹyin
pèpéle
lóṣooṣù
lórin
kól
hágáì
gbagbe
fínnúfíndò
eléwu
eku
adehun
##ge
ìtànná
àìlófin
àdá
yòò
yìntì
títẹ
tírè
tinubu
septuagint
sele
ròkè
píláné
ninú
lootọ
kẹrìnlá
kookan
arìndìn
alaye
òǹdó
ìfọkànsin
ìbísí
wíwúwo
sírú
síkàáwó
pète
ojúure
nírìírí
móoru
lílépa
láìlo
kaadi
irinṣé
gírámà
fílí
aṣaralóore
##tí
##man
ọgbọn
ìṣù
ìwéwèé
àbẹ
yóó
yíyàn
yemi
sítéfánù
seleri
ríra
ráúráú
lọpé
kúnnù
gán
gàgà
gbére
eérú
ayajọ
2005
##lá
##ke
ọbasanjọ
yoruba,
tíyẹn
títé
ríbi
kòbákùngbé
iwaju
iwadi
ita
isakoso
ikún
ibajẹ
hámánì
gbáyé
bori
ayẹwo
aró
afcon
##sọ
##dà
ṣíṣègbọràn
ṣáko
ìwúkàrà
sẹlẹ
sóun
síbí
russia
pàṣípààrò
pegede
oníbàárà
kóni
kénánì
irúfẹ
alágbèéká
2010
1993
1970
1940
##ran
##bí
ṣòroó
ìtayọ
ìkíni
ìhòòhò
àìmò
tipátipá
sànhé
ri,
pípẹ
osisẹ
múníìsì
márùnléló
lómi
làá
kípíró
kìlọ
dírìn
83
52
1996
##ré
##dé
##bẹ
ọta
ṣokùnfà
òwu
ìsun
ìhùwàsí
ìháragàgà
tàgbà
semonian
olóòtú
nathan
kẹrìndínlógún
kàndínló
iṣe
híhùwà
gùdù
gbilẹ
fèrè
dùkú
bárákì
austria
aláàfin
##jà
##is
ṣíṣé
ìtànṣán
àṣesìnlú
àna
pákán
pipa
pawó
naija
látìgbàdégbà
kọọkan
jan
inúure
bélú
bàbàrà
aarin
66
ṣánpó
ńnú
ìbáṣepọ
àdáni
you
soṣíọ
n,
lélẹ
láṣeyọrí
láìnídìí
king
kejila
hára
fàṣẹ
aṣebi
ate
##?
##lì
##ch
##ce
ẹbọra
òfìfo
ìpayà
àtijẹ
àlàfo
yíya
sàpọ
pera
níṣè
mówó
jíire
he
gbun
fòróró
bùkún
arùfé
akíkanjú
agbófinró
abó
abàmì
1980
ṣòfin
òrùka
òkìtì
ìn
àbínibí
yíyò
sẹnetọ
sínáì
sìnrú
sweden
ráhùn
mẹsè
màbo
láìmò
jésè
irufẹ
ileri
english
dukia
deji
bọmi
buruku
145
##as
##ar
ìrélànàkọjá
àpilẹ
v
tòde
ràá
pàrọwà
progressives
pabanbarì
nátánì
mùtí
koda
kangí
itoju
gúsù
guusu
fifi
elédè
díjú
díje
dìbò
afọgbó
ṣàṣà
òpùró
sokunfa
ranyàn
pé,
oniruuru
omidan
olugbe
olorin
márùndínláàádó
lọdọ
lókìkí
látòkè
látìbè
lárùn
kazakhstan
janduku
idì
gúnmó
eégún
ewú
aṣòdì
aláápọn
##nú
##nà
##kun
##go
ọsibítù
ẹya
ṣókùnkùn
ṣàròyé
ìletò
àtìyàwó
rinlè
nré
mórí
irúfé
ilà
ile-igbimo
eyi,
dictionary
dennis
500
##ara
ọyọ
òjijì
ìṣùpò
wárìrì
sibi
rékọjá
péálì
olólùfé
olókè
obìrin
lóminú
lágbo
kano
kanlè
gbégbèésè
erùpè
balogun
at
agbami
1960
##x
##ní
##kú
ńdò
ìgbàgbé
àtimu
àgbọn
tọkùnrin
sàmì
páálí
kíyẹn
kinkin
india
gál
gudugudu
gbẹnu
gbosuba
fìlà
dipo
200
##wò
##lu
##jì
##ey
ọja
ìfojúsó
àlùkò
àkóràn
yara
sópin
setan
olùpòkìkí
o,
látẹnu
jèhóṣáfátì
ewébè
dígí
dupo
balógun
african
1994
##w
##gi
ìkẹta
àdàkàdekè
tobìnrin
oní
olùbè
laipẹ
iyàrá
gbáàtúù
gbàù
fífọkànsin
fáíró
egypt
atukò
aládùn
##mú
##be
òòfà
ìṣòwò
ìforítì
èkíní
turkey
tiẹ
taa
seto
oṣere
ounje
olùṣọ
ololufẹ
odaran
nidi
lẹnì
kànléló
kooro
kirisé
kanra
jiroro
hú
friday
fayò
eti
encyclopædia
aásìkí
54
##os
òṣùwọ
òòrùn
ìgbín
tẹlè
tóóró
tuko
sáárá
samuel
oku
lónírúurú
efcc
dàṣà
deede
christensen
bèbè
belgium
awòràwò
albert
90
2017
1991
1943
1918
##fa
ìpakúpa
ìjàkadì
ìdámẹ
èṣo
ríru
ráwọn
pẹrẹu
omowe
ológoṣé
nínífè
mowó
kọra
júbà
idanwo
gbọgbé
fopin
ala
agboolé
1930
##mí
ọmọlúàbí
ṣékélì
ìmè
ìhónú
wíwulè
tálé
stephen
rọlè
pòkìkí
pákó
peléke
odùduwà
láìfò
lagos
ilé-ẹ
helen
gbajúgbajà
bíburú
“mo
ṣíṣí
ìtóye
ìnilára
àwíjàre
àrànmọ
wọkò
wèrè
níkòó
kíkú
káfíńtà
irinna
inc
hong
gbigbe
fáwa
france
atọ
alákọ
##li
ọla
ẹri
ẹgbàágbèje
àtúnbí
tòótọ
sori
pàpà
ose
olùṣe
ogoji
ode
manchester
li
kọlù
kís
jamb
guinea
fúngun
farahàn
apànìyàn
agọ
ọgọrun
ẹru
òhun
ìṣàn
áńtíókù
àtimáa
tòru
sám
ree
oore-ọ
ohio
nini
mẹditaréníà
kọlè
kẹsàn
kíkò
josé
idunnu
gádì
britain
anna
58
2,000
##gbé
ìrèké
títún
tage
safihan
ojúmọ
nípaṣẹ
nipo
ng
loni
kámé
jésíbé
hùmò
gbigba
fífọwó
búdà
adura
56
##yin
##ró
##gbà
ṣoju
òté
àjọlò
àjogúnbá
yékéyéké
washington
van
olóore
lorilẹ-ede
kúnnákúnná
jayé
iṣejọba
iyọ
ifẹsẹwọnsẹ
idaraya
fèrò
dino
báyẹn
biribiri
baálẹ
apata
##yè
##rà
##gbẹ
##a,
ṣera
òòṣà
ìfiwéra
àtayébáyé
tọrẹ
post
ogbon
nlá
lérè
léra
látara
lábùkù
lagbara
go
gbowó
fáfá
bale
atundi
alágàbàgebè
akẹgbẹ
agbọ
##sa
ìwúrí
ìlọrin
ìdánúṣe
títọ
sudan
sinni
scriptures
náámánì
mẹfa
lílágbára
láìyẹsè
karen
fífè
fenuko
dákun
dr
baalu
akọsilẹ
aba
##ìí
##áyà
##tọ
ṣòótó
ìmòye
ìdókòwò
àkán
wọnnì
rìndínláàádó
olómìnira
méso
life
iriri
iranwo
ileesẹ
gbénú
esun
ebola
bátí
book
ben
aláìló
73
2019:
##wà
##fin
ọmọ-ọ
ṣadé
úrì
àwòfiṣàpẹẹrẹ
àfẹ
yobamoodua
tẹsiwaju
sùgbọ
pàsífíìkì
onírera
olódi
nrin
lúpè
láàrín
ikó
gboyè
fìbínú
fagbára
dàrú
denmark
awò
atilẹyin
apo
apilè
afurasi
adugbo
ṣẹṣẹ
ṣin
ìkìlọ
ìbatisí
àṣekúdórógbó
àtobìnrin
àjẹ
àfé
sílà
shittu
ráńpé
rábì
orò
orisirisi
ojúlùmò
lí
láìronú
lojuna
kòkò
kínú
ife-eye
gbadura
fífani
fesi
ethiopia
dáwọ
darapo
bíbójútó
báwò
bilionu
ayédèrú
amòfin
american
aláìṣèfé
adìẹ
150
##ton
##ie
“o
ṣo
ṣeeṣe
àtirí
àgbékalẹ
with
súni
sísan
nnu
májèlé
lẹhin
káká
júwe
journal
gbélé
calvin
bòóké
britannica
banú
aiku
80
##tà
##son
##fà
òrépèté
ísọ
ìsẹ
ìrẹsì
ìjálá
ìdàníyàn
ètekéte
àgbọ
wánilé
www.watchtower.org
tẹle
sojú
reti
osun
onítàn
nírò
musa
mimu
lóúnjẹ
kádìí
kiko
iyanrìn
isejoba
ibọn
hóró
gòmórà
fínnífínní
fin
bíbò
ase
ali
abenugan
##yan
##pẹ
##du
ìràn
èèyànkéèyàn
àjàkálẹ
wakati
sọrọ,
sódì
satileyin
oríṣìí
onimọ
nítori
nìwọ
náírà
náà,
láìkù
kédárì
kàgbákò
koja
gìrì
gà
fífẹ
bópé
akhmedov
ado
1989
1947
##wọn
ṣèwé
ù
ìtúsílè
èérí
àtìmó
àkò
àjàní
tọmọdé
sórílè
ríro
peye
opin
múyé
mexico
líló
lagbegbe
kora
ketekete
gbébè
gbàrá
fóró
fifa
dèbórà
anfani
alex
ade
##ve
ọgbẹ
ṣánṣán
ìpilẹ
élíhù
èrèdí
ámórì
àìleèkú
àpamó
àkókó
àkàbà
àgbájọ
yingin
tàbanta
talákà
palé
oriṣiriṣi
orileede
ojoojúmọ
niger
méjìdínláàádó
musulumi
maya
lóòrèkóòrè
látìmó
kòríà
kìlógíráàmù
ipe
fìn
dídára
dákú
bèróà
bánónì
aṣoju
aláìgbọ
akéwì
agbekale
300
##pe
ọlọpa
ṣẹnuure
únṣe
òkodoro
ìtúpalẹ
ìtanràn
ìràwọ
ìjàpá
ìdámé
èlé
àtẹni
àkójọpọ
yakubu
wuni
pípín
oru
ohunkohun
nasè
lón
it
hílàhílo
gedegbe
fowosowopo
eréoníṣe
dàlè
bodè
abuja,
103
-ede
&
##ter
##so
##kì
##kà
ọmọbinrin
ṣìnà
ṣàmúlò
ṣoore
ńyà
èèpo
ènìà
wòye
toro
tini
sísérà
sétí
pásítò
photo
olùfọkànsìn
máíké
lóríi
làkàkà
lero
igbà
iba
híńdù
gbese
ewe
dùbúlẹ
amẹ
alukoro
##ọn
##ṣọ
##th
##rè
##kò
ọlọgbọ
ńjẹ
ìwẹ
yanju
síléèwé
pajawiri
nílíù
north
mímúná
lílé
lárúbáwá
kòṣeémánìí
kírúsì
kíndìnrín
kálébù
kini
ilé-iṣẹ
háyà
géńdé
fòótó
farapa
enu
déètì
bẹbẹ
ayika
awakọ
abè
1941
##!
##yọ
##st
ògìdìgbó
ìwòyí
ìlọ
àbáwọlé
wojú
tíṣà
shehu
pade
ominira
ojúbọ
ogbin
nábótì
nmi
madrid
láìdáwó
kong
kim
kekere
kaduna
jerúsálémù
ipasè
igbákejì
gbàn
gbagede
buru
apakòkòrò
amẹrika
abewo
##lò
##gbọ
##gbe
ẹmè
ìfáàrà
ìdásílẹ
àtilọ
time
rírígbà
látàárò
loke
kọminú
kikọ
jọni
jean
ilé-ìwé
ileewe
ghana
georgia
dena
chelsea
bíríkì
alátẹ
abínibí
##ká
ẹbi,
ìlépa
ìlè
ìfun
àṣàyàn
àpá
túbọ
títúmò
tahiti
rírẹwà
opopona
man
lojú
league
kíkàmàmà
jára
heṣekáyà
gbajúmọ
dẹkùn
digbí
daabo
arakunrin
aláìgbọràn
aina
abọ
abi
1958
-ọ
##rú
##ca
ṣèèyàn
ìkáwó
èèlò
èrú
èpè
àtúntò
àpọ
àlè
yípo
testament
sẹpé
sawọn
rírùn
pípolongo
oyinbo
lésì
láìpẹ
lálàáfíà
lenu
lagbaye,
jẹ,
joel
jinlẹ
gáàsì
gàba
gbòógì
frank
faramọ
catholic
afesegba
1946
##tẹ
##i,
”o
ṣòkòtò
ṣun
ìlàlóye
ìkángun
àìṣè
àdàkọ
wọra
wólẹ
tìn
tàdínláàádó
tibè
síwá
sátidé
sápá
spanish
peoples
paulo
or
olùdíje
jónátanì
jáà
jw.org
joshua
josephus
germany
geere
fífa
fàánú
funra
fulani
ayàwòrán
alaabo
##yi
ẹnikan
ṣàwọn
ìrúwé
ìbálò
àròjinlè
tọkàntara
sódò
sàsọté
rírò
oun,
olubi
nípọn
nípìn
níkàáwó
níjọ
nrín
mẹjọ
mélòómélòó
lísírà
láìtó
làsàn
lodi
jèhóáṣì
ibùjókòó
haiti
gbigbogun
erùpẹ
eléso
díbó
dani
dabi
bóde
awujọ
ara,
alágbàtó
aleefa
aaye
62
1988
##ry
##pò
##nt
ọsun
ṣògo
ògidì
ìkan
èèrà
àìkú
àtẹnudé
williams
sàlàyé
rose
oníwọra
olùsọ
olukọ
ogorun
níṣàájú
mára
milton
lékenkà
láìséwu
lámèyító
kẹè
kẹtàdínlógún
kùlú
kale
iwo
fògo
dáníẹ
christian
bùáyà
asekagba
aristotle
adinku
adeleke
adarí
adams
abdullahi
61
1992
1955
1953
1949
##ha
ọbabìnrin
ẹyẹlé
ẹrúbìnrin
ìkọrin
ámálékì
àtọmọ
àrékérekè
young
y
west
tẹnutẹnu
shiite
quebec
pegedé
olùfúnni
ole
obì
nítò
nílòkulò
nikodémù
màláwì
lósì
kòṣeémáàní
kíró
kíkópa
kuna
keji,
jẹrà
jéróbóámù
jàgídíjàgan
háà
gbówó
gbawájú
fúyé
femi
emmanuel
dárà
aáyan
alẹkisáńdíríà
alátìlẹyìn
ajẹ
agbebọn
##wá
##ná
##e,
##bó
ṣáṣá
ìyọlé
ìbánigbófò
àárọ
àwòṣe
àwítúnwí
àníàní
àdììtú
woṣé
tẹs
títò
tàpá
taiwan
ruth
pípè
paríparí
oníw
náni
nsè
láya
lápò
iwà
igbagbọ
fífọ
dáko
are
al
97
2018,
1951
##ṣà
##fi
ìṣubú
ìlàjì
ìjàn
ìdiwò
àgbákò
wéré
osere
olólùfẹ
nàíjíríà
madagascar
lágbà
kẹtàlá
kówó
kanṣoṣo
iyán
islam
idile
idibo,
ibùdókò
hungary
gbàgede
fíofío
ajogún
3,000
1979
1942
##ṣé
##tó
ọmọniyan
ṣílò
ṣèté
ìṣà
ìkóhun
èèwọ
àìníjàánu
àìjé
àmúṣọrò
walè
waldo
sedekáyà
sarah
salalu
rónke
rídìí
oje
níṣojú
nípakúpa
lawujọ
káyáfà
iṣẹju
hónú
gbero
gbafé
fìyẹn
fiṣé
fagbahan
dálé
buhari,
antonio
algeria
agbowó
144,000
##""
##za
##wu
##um
##pá
##or
##hun
##dun
ọyọ,
ṣékémù
ṣèṣe
òótọ
òògùn
ìfiniṣẹrú
ìbálòpọ
àmupara
àjùmò
yoku
tyndale
tiwa-n-tiwa
sípáníìṣì
sisẹ
scotland
rawó
olùtó
nítè
mẹwa
léjìká
láàfin
lásánlàsàn
lábánì
láago
liverpool
kánmó
kerin
jèróbóámù
itọju
israel
háránì
gilead
fífara
fagile
fafiti
ejo
diu
dide
association
akẹkọ
akosile
afúnni
63
1956
##fẹ
##co
##ck
ọọ
ṣàngó
ùráyà
ìwúlò
àyájọ
wọṣọ
waye,
tom
tanzania
sydney
se,
pààlà
níjà
márùnún
moore
lọkàn
jóé
fẹsẹ
finland
enia
eekan
dọjó
déédé
don
dahun
british
bara
anthony
ann
aláfarawé
alase
ajafẹtọ
agbẹjọro
agbè
afikun
86
2019,
1944
%
##oro
##mó
##kù
##bù
ẹwẹ,
únré
ìpàtẹ
àròkọ
àrá
yáwó
wọn-ọnnì
u.s
tẹpẹlẹ
tómi
tita
that
sísanra
saturday
rìndínlógójì
pinpin
oníyò
oníná
olùpèsè
olóòótọ
oluwa
mánà
my
láburú
isinmi
ifa
gbàá
gbalejo
eruku
ekiti,
dáèdè
aráalé
alaṣẹ
adúláwọ
adele
##kí
ọmọge
ṣáátá
ṣàkópò
òfo
ìyáàfin
áhásì
àméníà
x
wáyà
táà
too
tertullian
sásán
sinima
sandra
olúwarẹ
ojúmó
náání
méjìléláàádó
láabi
laaye
jáfara
jer
gẹhè
dínà
dida
bíńtín
bode
amulo
akọwe
afúnrúgbìn
adájọ
64
1931
130
##(
##yẹ
##ola
##ló
##ic
ọlà
ẹlẹgbẹ
ṣàríwísí
ìtúlè
ìkógun
ìgbéga
ìfojú
ìbádó
ààbọ
àwàdà
àríwísí
àràmàn
àpósítélì
àjòjì
yíyọ
wiwa
walter
tẹlẹ,
tórí
tony
sóko
sísìn
sísá
são
pátapáta
oníròbìnújé
ogo
nọ
mi,
léni
láìròté
látè
látijó
louis
kọni
kìn-ín-ní
jura
iṣoro
iléeṣẹ
igbaradi
gírígírí
gánà
gbabè
fífà
fiimu
fawó
esther
dòmìnira
dìtè
cameroon
burundi
boni
babaláwo
atunto
alágbèérìn
age
1986
##ts
##q
##o,
##gún
##am
ṣílè
ṣèkáwó
ìhín
èniyàn
àìyedè
àìjẹunrekánú
àwáwí
wòó
túntòsì
túká
tòsì
twitter
tura
rírorò
runlérùnnà
real
orírun
origen
obasanjo
nyìí
niwaju
lede
kàkàkí
jábọ
idán
idahun
fọlákẹ
fowo
figbe
dilè
day
baba-onírùngbọ
alẹkisáńdà
aláìṣiṣé
aláìwú
akoso
agbaye,
agbaninímò
1957
1948
110
##yàn
##day
ọbè
ẹrè
ṣèyẹn
ṣáfánì
ṣaya
òpò
ìmúrasílè
ìléwó
ìhámọ
àgírípà
àbé
títan
tàléláàádó
toronto
séwu
sèso
seese
port
philip
olómi
okoowo
ngbò
mesopotámíà
lúwè
library
kọrí
kógbá
kòríkòsùn
kírú
kejìdínlógún
index
gbígbòòrò
gbaradi
gbapò
fitafita
dírágónì
dupẹ
banki
aso
amáyédẹrùn
amo
ami-eye
ale
afojusun
##ánì
##mẹ
##j
##bò
òmìrán
ìtòsí
ìníyelórí
ìdájí
áńdérù
àtúnyè
àròpò
àmùrè
àgbékalè
àgbáálá
yàyàtò
victoria
tẹríba
tíìkì
tíwọ
rẹmi
rójú
ramúramù
pàṣán
petersburg
paṣẹ
ológbò
ololufe
nítara
nàìmọ
nàmọ
mọfọ
mímúra
museum
láìkùnà
láìjáfara
laasigbo
kin
jábó
institute
ibamu
gbaná
eu
bátànì
arthur
arsenal
ago
agbárí
adulawọ
##ty
##tan
##jù
##ion
ọdún-un
ṣetan
ìwòran
ìpadàbè
ìkookò
àsẹ
àlà
àjé
àjákù
àgbéjáde
wíwọ
woye
wipe,
sami
roman
ońṣé
olùsè
olóoru
ládùn
leni
kíkàwé
kárùn
kábíyèsí
kogi
jàjà
ile-ejo
idanilekoo
ibaje
gbòdì
gbìmò
fẹgbẹ
fònẹ
dída
alejo
adebayọ
adebayo
aboyún
68
1938
##jò
##gbo
##dè
##bu
ṣọmọ
ṣètó
ṣokunfa
òpònú
ìkọlù
ìjánu
ìdúródeni
ìdánimò
ìbọ
ánà
àṣemáṣe
àáké
ààrin
àtùpà
your
yaya
tìdùnnú
táútáú
tánni
rúbẹ
ranse
pàtẹ
pàgọ
paapa
olùfìfé
nínà
nílera
nlé
nkọ
nkankan
nairobi
melaye
láfiyèsí
layé
lawó
kọkànlélógún
kójú
kìjikìji
kàndínláàádó
kenya
kefa
iṣuna
island
irina
instagram
ibadan,
gìrìwò
gébúré
gbalasa
fc
elizabeth
ekunwo
bolẹ
badagry
arò
aláìmọwó
aláràbarà
alábàárò
abamẹta
1935
1922
104
##ur
##tu
##no
##iri
##ir
##id
ọgba
ọfọ
ẹmu
ṣàjọpín
ìgbóná
ìbú
èyítí
èròkérò
ábíjà
àṣetiléwá
àyọkà
àsọdùn
àfẹnusọ
will
tòní
tìtì
robi
rights
pẹrẹsẹ
pòròpórò
people
oókan
nobel
mìmì
hiv
gẹṣin
gu
god
gbera
garba
fàkókò
bello
aláìlábòsí
aláriwo
aje,
ajagun
##ímù
##tion
##sè
##san
##at
ṣìbáṣìbo
ṣépè
ṣémù
ṣán
ùn
òkò
ìbà
ákúílà
ábí
àyànfẹ
àmuyíràá
àjọpín
àdó
tọkàn
tẹbí
tífárì
towó
tajà
sákòókò
sisan
simon
sile,
sierra
pọlọ
pátákó
panos
orisa
ore
níláti
méjìdínlógójì
láìmọ
láìló
láìbè
lajú
joró
jake-jado
iṣakoso
iléìwé
ifilole
gírí
francis
echr
dalè
columbia
ayipada
andrew
amúnikún
alákò
alexander
afi
91
600
400
1961
##dí
ẹdun
ṣekárími
ìkùnsínú
ìkùgbù
ábínérì
àìṣojo
àáyá
àgbéyè
tówó
síméónì
séèyàn
sálọ
sara
rìn-ín
ranti
pere
pańpé
oṣó
níṣẹ
níkò
nífẹ
n-ọn-nì
mọra
mùtípara
míríámù
mídíà
mojèrè
lólè
léèyàn
létòletò
kòókòó
jẹni
jim
gẹẹsi
gbenga
fíìkì
faye
dánra
dádò
dojúkọ
com/
carlos
amosun
alábala
alekun
agolo
agbẹ
##yá
##won
##tò
##rù
##ns
##kè
##ine
##ers
##bá
ṣíṣàyè
ṣèrànló
ṣaájò
ńṣónáǹtì
òrukàn
ìpápánu
ìhìnrere
ábímélékì
àìnísàlè
àtíbàbà
àpólò
wọléwò
wíwó
tanná
síso
so,
rẹlè
popo
palẹ
pakistan
nírínwó
mẹnuba
monday
mase
iranwọ
gbungbun
gbemi
eelo
dídán
dohun
dekun
damásíkù
búlúù
aṣèwádìí
ayọnáyèéfín
apààyàn
ananíà
alùpùpù
aláìlágbára
alaalé
ake
agbó
abraham
1975
1952
##kó
##dá
ọpó
ẹti
ṣèfé
ṣàfihàn
ṣagbátẹrù
ìmọnúúrò
ìkẹ
ìdáàbòbò
àìnípẹ
àsọtẹ
àrànṣe
vulgate
tọmọ
tenumo
sọnu
sọkún
seyin
rúnmìlà
rúkèrúdò
rírán
pípò
pèṣè
plato
onnoghen
onimo
olùtùnú
nations
myanmar
lódìlódì
lálẹ
luis
laisi
korò
jojú
jacob
iwuri
isà
isejọba
ipòkípò
ini
gbígbéṣé
gbàtó
fífaradà
fuji
edeabinibi
chris
ayewo
ayalegbe
alárùn
alápá
akátá
akori
akekoo
ajosepo
afò
abẹle
1963
139
##-ọ
##pè
ṣáwọn
ṣàṣeparí
ìkẹrin
ìkùdíè
ìdìtè
ìbánisọ
èkìtì
àtigbé
àjọyọ
àgbálọgbábọ
àbààwó
wọnyi
tumọ
teleri
sító
sígbèkùn
sese
senegal
ríré
pápákò
pipese
olówó-ayé
naijria
máàkì
movement
margaret
láyọ
loida
lo,
lasan
kọfí
kínníkínní
jìngbìnnì
juan
goolu
gbààwè
gbara
election
egbògi
dòru
czech
bura
black
babańlá
aṣiwèrè
atamatase
1984
-àrùn
##wé
##lú
##lù
##ly
##io
##ian
##gbó
##gbò
ẹnìkọ
ṣóńṣó
ṣíṣàníyàn
ìsìnrú
ìròhìn
ìpara
ìléru
ìdíwó
ìdárò
ìdánrawò
àṣekágbá
àpínsọ
àfọ
yarọ
tìyanu
tàbúrò
pélébé
pi
peru
pase
okere
odù
níbòmíì
níbòmíràn
niyi
mílíọ
matthew
kẹkẹ
kúnlè
kòsí
jásí
ilée
hágárì
fáráyé
dídà
dahoro
bíbójú
báṣé
azerbaijan
aláìníbaba
aisha
abẹnugan
abiola
57
-àgùntàn
##/
##ràn
##mì
##ho
##dò
##ah
ọmọkunrin
ọdaran
ẹgbọrọ
ṣíṣàṣàrò
ṣíbí
ṣini
ńtíù
ìrí
ìpániláyà
árámáíkì
àròyé
àríkó
túbú
ted
tanni
rùbojo
rèn
pe:
oò
onílàákàyè
nijẹ
nigeria,
mọlé
mòye
máyà
kógun
káà
kwara,
ii
hòrò
fọrùn
fàyà
fidiẹ
fayoṣe
eékún
dídáké
cross
congo
college
bíbu
ambode
alájà
aláboyún
alamojuto
akiyesi
ajimọbi
adẹ
71
##àá
##rá
##pé
ẹnití
ẹda
ìyèkooro
ìjẹun
ìgbá
àpẹrẹ
àparò
àjẹjù
yọwó
yẹsè
turkmenistan
theresa
síí
sáfé
silu
pamó
osù
oríire
onítọ
onígbò
olo
nírìíra
mejila
lílóye
lámèyítọ
lálaalé
lábàá
kúnrẹ
kóró
kànléláàádó
jágbe
joba
ile-iwe
hans
gàá
goodluck
gbi
gbagbọ
fẹsun
fòníṣíà
dágunlá
central
bẹni
bora
bokoharam
aṣíwájú
aṣálẹ
aáyù
amóríyá
alárìíwísí
1954
148
##ké
##fo
##et
##dù
ẹgbọn
òléwájú
ìtọrẹ
ìtàkùn
ìhun
ìfararora
ìbòjú
èkúté
àṣè
àìmọtara
àádóje
àrọ
wales
títú
tílẹ
táyà
tànmó
sìmé
susan
soríkó
sapejuwe
rọrun
róbótó
pírísílà
parapọ
osi
oo
onífó
onikaluku
ogun,
mẹẹdogun
lọjó
láìṣè
láìṣàbòsí
láìgba
laa
ika
health
gídò
gànjó
gboye
gary
foríbalẹ
eéṣú
europe
daily
brown
atawon
asẹ
ap
ako
afihan
abu
67
59
1976
1974
1959
##que
##me
##jí
##gbè
##ade
ṣíṣiṣé
únjẹ
ìkeje
ìdádò
èèràn
àpókírífà
warwick
uk
tádé
trump
sẹsẹ
súnni
sìnì
sita,
rọpárọsè
rìnléláàádó
relé
oryol
one
olóri
ojúlé
nítorínáà
náílì
not
nirú
mòsáńbíìkì
méjéèjì
mejo
lọkan
lókùúta
lójúkojú
láìṣègbéyàwó
latvia
labour
kingdom
jésíréélì
iṣere
iro
igbẹjọ
human
how
gégùn
gbóògùn
gbígbè
gbàjarè
gbolè
figba
ferdinand
dínkù
church
bíbọ
buwó
agbò
adajo
69
1982
1978
1920
1513
120
##yìí
##ogun
##ile
##fọ
##ere
##ele
##ede
##ale
ọsàn
ọmọogun
ẹẹ
ṣèjọba
òrò
ìgbafé
ìfúnpá
ìforígbárí
èérún
àìnírètí
ààwè
àjàpá
yájú
yarí
wúndíá
victor
tíí
táṣé
tàdúràtàdúrà
today
thailand
studies
soke
serbia
sani
sadusí
ronúpìwàdà
páńpé
pu
oníbatisí
onisowo
ondo,
oge
ogbontarigi
nuso
n-
mọ,
muhammed
mike
mari
lòpọ
lérí
lámujù
kóyán
kírétè
jìgìjìgì
jabo
igbagbo
gíláàsì
fíníhásì
eru
dídó
chile
básámù
bálámù
biliọnu
bawo
armenia
alaboyun
adamu
1966
1962
133
""
##ùú
##òó
##sh
##ire
##hi
##der
##ad
ẹyinjú
ìṣàlẹ
ìpẹ
ìfàjè
ìdíbàjé
tọwọ
tukò
sófin
sínilára
street
scott
sam
rio
pẹja
otitọ
onile
olùṣè
oluṣẹgun
nísinsìnyìí
nàgà
moldova
láàlà
laaarin
kóhun
itura
isaac
indonesia
ilu,
ifọrọwanilẹnuwo
ibùsò
híhu
hédíìsì
géhásì
gbòǹgbò
gbígbin
gbagidi
fẹran
fínńdà
franz
fori
fipa
eric
ecuador
dòdò
bukola
bolivia
apẹ
agba,
adigunjalè
abdulfatah
1985
1972
1969
##ára
##sin
##han
ẹnìkejì
ńpa
òndó
òdiwọ
ìtàjè
ìpán
ìdíwò
ìdì
èèbó
àṣíborí
ààyò
àtìlẹ
àlééfà
àfarawé
zimbabwe
wednesday
tòmátì
sómi
sógun
síbòmíràn
sowo
sakoso
rohr
oro-aje
olu-ilu
old
nìwò
mísì
marie
lódì
láìdabò
látilè
logun
lett
kérora
kéje
kédàárò
kuku
kenneth
kannáà
joko
jerusalem
ipari
igbiyanju
idajo
họ
gbóhùn
gbárùkù
gbálè
gbayé
fínnú
fíndò
from
dẹrùn
daradara
bọ,
bálẹ
bakitéríà
augustine
arébíà
ahẹrẹpẹ
537
105
##ń
##u,
##nù
##kàn
##jé
##im
##ee
##ate
ọyẹ
ẹwọn
ṣù
ṣíṣẹ
ṣàkójọ
ùsáyà
òkè-òkun
ògùn
ìṣòrò
ìjẹyọ
ìdàrúdàpò
ìdàgbàdénú
ìbániké
élíásárì
zealand
un,
túra
tíntìntín
sáyè
swahili
siberia
ràbàtà
parọ
onínàákúnàá
olusegun
nǹkankan
níṣe
norway
nigerian
mìíró
lójoojúmọ
losu
linda
lapapo
kàtídírà
komisona
kedun
jersey
jackson
iyanju
iwé
irùngbò
ironu
igberiko
ibùjẹ
fìyàtò
fipo
fakíki
faaye
eṣinṣin
ese
elénìní
ele
daadaa
cyril
christine
bíbè
basa
banijé
apínwèé
aninilára
alábàágbé
alan
1971
1937
112
106
100,000
,ni
##èé
##yí
##rùn
##ini
##au
##ani
##aa
ọfẹ
òòjọ
ìtúmọ
ìjọra
ìgbékùn
ìdíwọ
èròǹgbà
àgbàrá
zambia
yooku
yearbook
wessel
tòṣì
tímítà
térò
tèèyàn
tàdínlógójì
sísè
sáájú
pànìyàn
parẹ
party,
opc
onírin
oníkálùkù
oníjàgídíjàgan
nbẹ
létíkun
lánlé
lorí
kànjàn
kiní
karl
iṣọ
insight
imọran
ikanni
ijoko
ijinigbe
gógó
gìgísè
gregory
gboogi
gbaa
fífetí
fred
florida
farahan
elétò
elu
east
costa
bíba
báàgì
báwa
barr
ańgé
ayederu
art
antwerp
amayederun
alán
alábùkún
agara
abameta
78
1967
##ov
##ore
##ina
##hu
##gùn
##gì
##ana
ọku
ìsọfúnnni
ìrù
ìpakà
ìfó
ìbàlágà
áńgílíkà
àṣefihàn
àìló
àsọtúnsọ
àrò
àjọròde
àjàyí
àfòmọ
àfiró
yíni
yi,
yanran
wábi
vatican
tòògbé
tokyo
tibet
texas
sọtọ
sìnkú
sánsán
sàràkí
soso
rìrì
rogbodiyan
ranṣẹ
pèrò
purọ
olùtọ
olóòórùn
olókùn
ogunlọ
nùmó
néfílímù
nifẹ
mohun
lloyd
kúfẹ
káre
ken
kano,
jólóòótó
julie
iyàn
iyansipo
ilá
ikò
ikan
ifowopamo
heights
harold
gbèèràn
fáyé
eyin
dèrò
dàwátì
béárì
bèrè
bio
atunilára
amè
alohùn
alibéníà
ajinigbe
agbábọ
agbanisíṣé
afúnnilókun
abiodun
84
75
1977
1965
##00
##-i
##dọ
##dó
##ala
”aare
ẹyín
ẹgba
ánjàn
ààrá
àtọ
àròdùn
àjọṣepò
wúyé
wánilẹ
wn
us
téńté
tubọ
róye
rèhóbóámù
rachel
pípe
panápaná
owólabí
oríi
nísisìyí
níbùú
nàá
nepal
naa.
méjèèje
láìsọ
làn
leah
kọláya
kòlóńbíà
jínjìn
johnson
itọ
ipaniyan
ibùjọsìn
hànhàn
gíbíónì
geneva
fun,
filé
dẹkun
dágbére
can
bábélì
bolè
apákan
allen
agbádá
1987
146
##'s
##ʹ
##yo
##s,
##ment
##kùn
##jó
##ari
ọṣun
ọya
ọdu
ṣàárè
ìyàsọ
ìrókò
ìkùdu
ìgbàyà
ìdẹ
élíésérì
àìṣèdájó
àìròté
àtàgbà
zamfara
wọpọ
virginia
táláyé
tàlélógójì
sósì
saudi
sabewo
patterson
patapata
panu
olóko
olorejore
ola
odó
nígboro
ntì
nni
nisó
mínísítà
mewaa
lọkọ
lẹsẹ
lágara
kùmọ
kíkàn
kíkojú
jingíri
iyipada
ipago
ikeji
gbọin
gbégbá
gbàjọba
fohun
der
del
dagba
creation
champions
bíbọlá
apoti
amojuto
alagba
akwa
akoba
agbani
afàwò
89
10,000
##ṣì
##èrè
##sà
##su
##n,
##mà
##gan
##dan
ẹlẹsin
ṣíṣè
ṣaláì
ǹ
òtúbáńté
ìyára
ìyàlẹ
ìrera
ìlà-oòrùn
ìfọwọ
ìdúróṣánṣán
ìbàdí
èyi
ápù
ààwẹ
àkúnwó
yíwà
tọrùn
tìtaratìtara
tunde
tibí
this
tapa
síhìn
sánmọ
rònú
rírè
ríràn
oyo,
oníwàkiwà
onínúrere
onígbàgbọ
olukopa
olojo
okunrin
nff
moses
mar
láìjìnnà
lákọsílè
lonítò
kọkanla
kẹdun
kásé
kuti
keje,
karùnún
jáwé
jáni
iyẹn
iyaafin
ilé-ifẹ
ikilọ
gàdàgbà
fífò
foundation
fojúure
eya
edward
dola
doju
croatia
bákannáà
brad
aláìṣeé
aláìmò
alafia
alaa
aja
afẹfẹ
1983
##-ẹ
##ẹni
##rán
##rs
##dẹ
“awon
ṣàdéhùn
ìṣílétí
ìkarùn
ìkanra
èèwò
áté
ààrò
àríkẹ
àpólà
àkùkọ
yíyà
yinbọn
yanrìn
tweetyoruba
toyin
teymur
síró
star
sokoto
service
salvador
risi
rico
philo
orun
olúwaarẹ
olùbatisí
olukọni
olubadan
násírì
niyanju
nipase
mama
líìtì
lìdíà
láràárò
lákòótán
los
lomi
kóńgò
krístì
jane
high
gudu
gori
fítámì
ella
dọdẹ
court
congress,
center
carol
caribbean
carbon
bayi
ayajo
atunṣe
alágbẹ
alágbàṣe
aláfẹnujé
alefa
aladani
agbada
afìṣemò
adulawo
abódiakọ-akọ
abule
94
1981
1879
160
127
##áì
##wẹ
##rd
##oko
##fun
##awon
ọjẹ
ẹtu
ṣọdún
ṣóòótó
ṣìnkìn
ṣìkejì
ṣàkàwé
ṣee
ísíkáríótù
ìṣaralóge
ìsálú
ìpètepèrò
ìkíní
ìfòyebánilò
ìdìde
ìbúgbàù
ábíṣáì
àtọmọdé
àlùmò
àlámò
àhámó
àfojúdi
àbáláyé
yìí,
wọn.
wínníwínní
was
sagbateru
riri
rinrin
omiyale
olowo
móṣè
mu,
medical
lódò
lòún
láwọ
lálá
kúnlé
kíki
kárakára
kowe
kokoro
iyẹ
isegun
imí
ijinlẹ
ifọrọwerọ
idokowo
ibalopọ
herald
gẹdú
gátì
gbẹmi
gbàlejò
fẹjú
fìrè
elédùà
cup
bíbó
bálì
buwọlu
bowolu
borno
benjamin
aṣeyọri
awn
asisat
anìkàntó
anne
amó
aláwòmọ
agbekalẹ
afrika,
abarapá
700
1933
1,500
##-e
##ṣu
##yì
##pà
##nd
##mò
##it
##fì
##bon
##are
##ai
ẹlẹgé
ṣe,
òpè
ìyánhànhàn
élífásì
àtúpalẹ
àbámò
yiyan
yala
wólè
wayii
unicef
tiata
thursday
teleri,
sínágọ
storrs
solomon
rírántí
rìnlélógójì
rámà
páìpù
páàpáà
puerto
poju
pelemọ
owurọ
oriki
oriire
ootọ
oníwúrà
nwó
nlọ
mérè
méjìlélógójì
mágó
lẹyè
láásìkí
lose
lorisirisi
lanlọọdu
laipe
kẹsan
kémi
kékèké
káàárọ
kyrgyzstan
jesu
jessica
iyanṣẹlodi
isin
ipari,
ile-ifowopamo
ile,
idojuko
ibeji
have
hausa
gunle
god’s
gbagbe,
ganduje
fira
elesin
eastern
dídarí
díbàjé
dánu
diabo
dana
daada
bílà
berlin
asofin,
arinrinajo
aló
albania
akọnimọọgba
agbedeméjì
adúláwò
adam
abẹwo
77
3,500
-oòrùn
""a
##sun
##ol
##ley
##fá
##eji
##bú
ọmọwe
ẹlikénà
ẹgbọ
ṣúlámáítì
ṣíhónì
ṣojúsàájú
ṣ.s.k
ìdánilẹ
ìbáraẹnisọ
àṣeyẹ
àìnígbàgbó
àyájó
àtinúdá
àjàkú
yòó
woni
war
tan,
sẹnẹtọ
sárésáré
sinsin
river
rinlẹ
park
pada,
oòduà
onígi
ojúkò
ojutu
níti
nìyìí
nw
niwọn
nigbati
n-ọnnì
mikàn
léà
láìjanpata
láìdáa
làásìgbò
layò
latin
lala
kúnlẹ
kálẹ
katsina
jenny
jennifer
iyalode
issa
irinwó
inec,
iha
ibe
híhá
hébúrónì
ho
gólà
gáyó
group
geoffrey
gbogboogbo
gbalè
fífanimó
fese
ecowas
dominican
commission
básíláì
bágbà
bank
asiwaju
air
aarẹ,
aabo,
1925
##-a
##ọla
##yìn
##tá
##orí
##one
##ler
##ek
##bé
ẹjẹ
ṣan
òpójè
ògì
ìṣewẹ
ìyọ
ìwàkíwà
ìtí
ìrìnkèrindò
ìná
ìjò
ìjíhìnrere
ìjàngbò
ìdọ
ìda
ìbágbépọ
ìbágbépò
èlísábé
àtìláńtíìkì
yẹni
yíyin
wúnrẹ
tóyẹn
tuntun,
tukọ
todun
tilu
taápọntaápọn
talẹ
tajú
science
sare
sanni
réhóbóámù
ralph
pipẹ
pasẹ
orín
onibara
olùyọṣùtì
olùpè
olójúkòkòrò
office
odu
obinrin,
nílùkulù
niké
mígbè
màámi
morris
messi
lóyè
lólobó
lánàá
laodíkíà
kẹfa
kánú
kámú
kàndínlógójì
kotẹmilọrun
koo
koi
kentucky
kanòjọ
jíjókòó
jàra
joan
jakejado
iyanselodi
her
gígé
gold
globe
gelede
gbàmò
gbuu
gbiná
fára
francisco
fifún
estonia
eléyìínì
drama
development
christopher
bìà
bìdírè
barbara
banta
australia
asoju-sofin
arúfin
amy
ahéré
agbaagba
95
1964
147
111
0
##érì
##wi
##uru
##ss
##rt
##he
##bọn
##ati
’’
ọọni
ẹnú
ẹkú
ṣàkó
únhán
òwìwí
ònìí
òmíì
ìwàn
ìfòfindè
ìdálóró
àìdásí
àwá
àrídájú
yánnayànna
yusuf
wẹẹrẹ
wájú
wulo
usman
umuoria
uefa
támárì
tàwa
sítà
silẹ,
ràgàjì
rotimi
roni
rivers
pàgó
orúnkún
orogún
olóbìí
olokan-o-jokan
ogóje
níhìn-ín
nicole
mẹwaa
mílíìkì
muu
mgboko
madagásíkà
lọgun
lẹwó
lílù
lálàá
lopo
lera
leone
kọsẹ
kókò
kálídíà
jóṣẹ
jámó
itaja
islands
ise-akanse
insulin
inawo
ile-iwosan
ile-isẹ
ile-eko
ile-
iji
ibìkan
gàgàrà
guatemala
good
gbẹdẹmukẹ
gbíyè
gbedeke
fc,
est
dọwọ
dédìí
cuba
child
carmen
bọnu
bìrí
bulgaria
boy
benue
ayárabíàṣá
arẹmu
angola
aláìdúróṣinṣin
aláró
alufaa
almeida
ajínigbé
ajàfẹ
ahmad
against
adébọ
abubakar,
abele
aa
250
230
115
##sílẹ
##oye
##ner
##ham
##ff
##fe
##aba
ọti
ṣófo
ṣíji
ṣaláìsí
òógùn
ìṣeléṣe
ìsík
ìkànìyàn
ìhágún
áì
àṣá
àṣekún
àìdánilójú
àyídáyidà
àtikékeré
àsikò
àjíǹde
àfìgbà
tẹnumọ
títàn
tìgbà
tuesday
tiwantiwa
takun-takun
sunwọ
senetọ
senakéríbù
santa
sagbekale
riran
publications
protein
plateau
omode
omiran
olùkórè
olùgbèjà
níyè
níparí
nimọran
nfi
mófo
miguel
lucaris
loṣu
larin
lake
kọtí
kítà
kànlélógójì
kesaréà
jw
jaracz
itú
itage
isalẹ
irinse
hùwàkiwà
híhun
hawaii
gbomi
eniyan,
ee
dáyà
doris
bẹẹ,
bákàn
aro
alakọbẹrẹ
akinwunmi
akanṣe
ahun
agídí
africa,
ada
aboríṣóńṣó
aawọ
85
6,000
1870
##uk
##rìn
##lí
##land
##já
##ez
##chi
ṣẹkè
ṣiré
ṣerú
úkẹ
òpómúléró
òfófó
ìsọdahoro
ìpéjọpò
ìpamọ
ìmúlè
ìfìyàjẹni
ìfìwéránṣé
ìdáló
ìbòrí
éhúdù
èédú
àìṣe
àìrílégbé
àárẹ
àtúbò
àtìmọ
àsírí
àrímáleèlọ
àkótán
àká
yíyẹra
yobe
tẹtẹ
tónítò
tókù
tòdodo
tímọ
sọtẹ
sísún
sakun
rọsè
rírì
pínpín
pohùnréré
pierce
parọwa
paradise
osin
oníṣe
onígun
onígbòónára
oniṣẹ
oniduro
ojúrere
núm
ní,
nsọ
nkó
nipasẹ
lọwọ,
lẹgbẹ
lílà
léfòó
láìrò
láìmọye
lobìnrin
lanu
kíká
koja,
kogba
kika
kaa
jìnà
jèhóádà
joyè
jinná
iranlowo
ileewosan
igún
igbesi
harry
gbẹgé
gbérò
gbáràwé
gbààwẹ
gbàgbàkugbà
eri
dídín
débí
dáríúsì
dájọ
d.c
cd
bámúbámú
auschwitz
asuu
amú
alálàáfíà
aládàámò
ajẹntínà
ajùmò
agbenuso
afe
abirùn
aafin
121
##átì
##zo
##ura
##ua
##ow
##kin
##ger
“ni
–ise
ọtọọtọ
ọmọò
ṣẹké
ṣeto
ṣafihan
ńlẹ
òṣùṣù
ìṣàmúlò
ìwakùsà
ìrànwọ
ìfi
ìdúpẹ
ìdáláre
àṣálẹ
àṣe
àìlón
àwìn
àtilè
àrọko
àjànàkú
àfipáṣe
yúfírétì
yánpọnyánrin
yángá
wíńdò
wára
wall
wale
síse
sànán
standard
spain
sibẹ
rúdurùdu
rosa
roma
rira
páànù
pàpò
pato
papò
orígun
oníhóró
olókùnrùn
ofin,
nasa
mílà
méfò
mánóà
mona-mona
menno
mail
lõtọ
lòmíì
léyìí
lopolopo
leyi
kùtù
kùkùté
kóhátì
kíwọ
kíkéde
kunkun
keyin
kawe
kanlẹ
jáyà
jiti
jason
ikẹnnẹ
ikun
ifowosowopo
his
gílígálì
gbígbìyànjú
gbìmọ
gbaṣé
forukọ
fela
falcons
epafírásì
dìí
delta
columbus
bán
bukọla
brian
bb
aṣó
awẹ
argentina
ani
amọṣa,
agbenusoro
aga
aburo
98
79
2017,
##000
##va
##tte
##ria
##pin
##ny
##ira
##hùn
##gu
##bè
…
ẹhonu
ẹfun
òrìsà
òpópó
òkèlè
òfò
ìsọníṣókí
ìsán
ìrajà
ìmúniláradá
ìjíhìn
ìjàmbá
ìhùwà
ìfòòró
árámù
àmúlùmálà
àkísà
àhesọ
àbòsí
»
yùsíbíò
yóòkù
yíyó
yoga
tílè
tire
taze
sọwọ
sámúsónì
steven
stars
simi
she
sanwo
rìndínlọ
ráàyè
ràbò
ron
rere,
pósí
plantin
pipe
peju
osuwon
oluko
okòó
ojulowo
niṣẹ
near
n-ọ
míkálì
monique
mejidinlogun
légbá
láàbò
ládé
laago
kúndùn
kórí
julius
joe
iyan
ifo
idaniloju
idanileko
huru
hope
gẹtisémánì
géèmù
gloria
gbode
gbayawu
fọhùn
fẹlá
fẹjó
fílémónì
fayose
faranse
faa
erika
egúngún
eagles,
dẹngbẹrẹ
dépò
dupò
doola
dna
chicago
canada
caf
bóofé
besini
archive
andré
aláìlẹ
aláfọwó
alagbalúgbú
akàn
ahasuwérúsì
agbé
235
1934
1928
(n
##-ó
##-á
##-u
##-an
##ṣi
##zi
##tun
##sé
##sá
##pó
##ou
##ese
##eni
ọpa
ọgbọọgba
ẹtì
ẹfọ
ṣàìdáa
ńjìnnì
ìṣeniléṣe
ìsọkúsọ
ìroragógó
ìlúu
ìdánimọ
ìdàpò
ányán
áhásáyà
àtàrí
àrífín
àlòkù
àgbó
yàwó
wárí
women
tàsé
tabua
sọọ
sọra
sáréfátì
steve
sinkun
singapore
silva
rọbi
ríri
ronald
pọju
pictorial
pedro
pasitọ
orisun
onílè
oníkálukú
oníjà
onídàájọ
onwoye
olúborí
olùtumò
olùdásílè
obasanjọ
nípamó
nífà
nló
nibe
n-yẹ
mẹsan
múlé
mímutí
máìlì
mesan
mba
lẹkun
lòde
lébìrà
láìdábò
látayébáyé
lámékì
kọja,
kóríra
kéjì
kèké
kevin
kanu
kanrí
kamẹrúùnù
jóṣ
jíjíròrò
hùn-ún
herbert
henschel
gíríkì
gogò
geesi
gbingbin
gbe,
fọrọ
fọmọ
frederick
fayemi
ewuro
esùsú
elédùmarè
díde
dojuko
children
carolina
bọnú
bóokò
bola
bala
babatunde
akinkanju
ai
agbẹjọ
agbejoro
adú
adàwékọ
abúgbàù
about
96
,ti
##ṣù
##ṣá
##áà
##yín
##tar
##pu
##kún
##ilẹ
##hì
##gọ
##che
ọgagun
ṣókè
ṣíṣètò
ḿpílì
ńfi
òjé
ìpa
ìkàwé
ìgbóhùnsáfẹ
ìbáré
èkínní
átó
àìṣègbè
àtìgbàdégbà
yùngbà
wọnyii
wilson
vladimir
venezuela
sọlè
síwàjú
states
slovenia
sibe
see
rélùwéè
ránsẹ
religion
polish
papua
papo
pa,
oxford
otútù
otooto
onísùúrù
oníkòkòrò
oníbodè
oló
olootu
nina
nelson
mélékì
million
lóòtọ
légbodò
léf
lée
láìṣojo
lorileede
lakoko
kọyọyọ
kìnní
kànnàkànnà
kokanla
kejila,
kara
kaféènì
jìjàkadì
jigè
janeiro
jack
jabọ
islamic
irinṣẹ
ikini
ijù
idris
ibon
gúnlẹ
gomina,
giramafóònù
gbéregbère
fúlàní
fífojú
enikeni
emma
egunrín
dínárì
dáyámó
dar
catherine
cape
bíni
bíbániwí
bálákì
baje
aṣeniléṣe
asaaju
aridaju
amusese
amerika,
alásọté
aládàáni
alábojútó
akeredolu
afefe
adrian
action
76
1973
1,600
""o
##ṣí
##ínì
##ádì
##sha
##ise
##gẹ
##fù
##e-
##ary
##and
##ak
ọmọ-ènìyàn
ọbásanjọ
ṣìwà
ṣèrántí
ṣáká
ṣetán
ṣaa
ńpè
òjó
òjíá
ìyáa
ìwọṣọ
ìtannijẹ
ìròbìnújé
ìdágunlá
ìdàkejì
àìlábòsí
àyínìke
àtimú
àjọgbé
àjẹkì
àgàn
àbùmó
yabuga
wole,
wayii,
umar
tìbéríù
tánì
there
síwèé
sálé
sábẹ
saba
róúnjẹ
report
pèéṣé
point
ou
ogunlogo
odiwọn
níwèé
níná
nnamdi
nlẹ
milan
mikel
lọkùnrin
láìjẹ
lànà
lugbadi
lowó
love
lisa
l'ọ
kọrun
kẹẹ
kájú
kesan
jùmọ
joy
johannesburg
jairo
iṣẹgun
iyen
irinwo
irene
ilera,
has
gúṣù
gànjọ
gigun
gestapo
first
fesun
ezekwesili
et
dídáàbò
dìbàjé
dira
bógun
bedell
bawọn
barcelona
aṣiwaju
aáyán
awujo
atasánsán
aláìṣè
akala
ajílè
aids
agbesunmọmi
afòòró
adéyẹmí
abe
7,000
2015,
20,000
1932
1,000
##íyà
##ítì
##ul
##ue
##tè
##sk
##pi
##ojú
##od
##ms
##ld
##ky
##hin
##gbá
##cal
##ama
##a-
ṣẹlé
ṣàyọlò
ṣàwàdà
ṣàdàkọ
òkèrè
ísíkíé
ìtẹnumó
ìtì
ìtànjẹ
ìrọwó
ìráhùn
ìrandíran
ìkọjá
ìgbìyànjú
ìgalà
ìbáà
èébúdọlà
èdèe
árádì
àìṣèfé
àìgbọ
àtidi
àpà
àmúyangàn
àfiṣelé
yọju
uyó
tutó
tibi
tabili
sápò
sálúbàtà
sela
saúl
sayé
sanwo-olu
saint
sadé
sabina
rẹrẹ
rwanda
rara,
pípabanbarì
pierre
patrick
papako
osun,
oshoala
olùgbọ
oluranlowo
okechukwu
ojúu
nátanì
náa
ni.
nda
mọkanla
máàsì
moní
minimini
meji,
mario
lọdọọdun
lanfani
l'abuja
kọwe
kúró
kólòlò
káràkátà
kilọ
kgb
jíà
italy
iseselagba
ipin
hà
gídígbò
gàntè
green
greek
gegele
gbún
gbígbá
gbì
gbàṣẹ
fínfín
florence
fagba
es
end
elections:
eji
ebun
ebedi
dẹrù
dùùrù
dídáhùn
dámásíkù
dàníyàn
dàn
dudu
donald
day:
dawọ
dabiri
commonwealth
chinese
bruce
benue,
ari
amutọrunwa
alatilẹyin
akínkanjú
ajọra
800
4,000
1900
125
116
##-un
##-o
##ệ
##ṣa
##vo
##ville
##té
##om
##olu
##oba
##ism
##ero
##dùn
##bì
ọtọ
ọtẹlẹmuyẹ
ọmọọ
ọbadáyà
ẹṣọ
ẹgbẹrin
ẹbun
ṣìkà
ńlọ
ńbọ
òfúrufú
íṣímáé
ìṣíde
ìṣáná
ìre
ìmúpadàbò
ìmé
ìlu
ìkẹfà
ìkáló
ìkorò
ìdágìrì
èdùmàrè
àìlè
àìbìkítà
àfó
yàgàn
yigbì
wáye
ward
von
usa
unesco
tíátà
táàlì
tatian
tata
sáráì
sowore
seraphim
rùjè
rára
ryan
píà
pátímó
pàté
premier
pan
paláṣẹ
our
osùn
oríta
olùrànlọ
níkà
nígba
nikẹ
nigbà
nawọ
nahuatl
mísípà
márààrún
mudashiru
marun-un
martha
lítà
léwe
lékó
láṣo
láìrí
láwìn
láró
lile
lanfaani
kẹrìnlélógún
káàsì
kánà
kinni,
kawọn
kari
jíjẹrà
jona
jerome
jake
iyatọ
iyalẹnu
iroyin,
iranti
iléṣà
il
ikorodu
ijọsin
ibanisọrọ
hè
gèlè
gàáló
gàmálíé
gernot
gegere
gbéṣirò
gbékútà
gbuuru
gani
galileo
fofin
eṣú
european
dálẹ
daa
clovis
cleveland
aṣán
aztec
arabia
ara-ilu
angela
am
aiyé
agunbanirọ
agbelewo
abba
92
1968
170
000
(apc)
''o
##-in
##ámù
##way
##ver
##tú
##ten
##padà
##oke
##nk
##ll
##ii
##ci
##ation
##aare
ńlé
ògbójú
ìwòkuwò
ìsìláàmù
ìnìkanwà
ìlọgun
ìkúùkù
ìkáwọ
ìgbélárugẹ
ìgbékalè
ìfà
ìdà
ìbánisò
ìba
èékánná
èjì
àtọkọ
àtipa
àjẹyó
yíwó
yàà
yato
wíwú
what
sími
síjìn
síbòmíì
suuru
suicide
subú
sri
siri
scientist
santiago
rúbé
rojó
rekete
red
pata
panama
oṣooṣù
oníjìbìtì
oníd
oluranlọwọ
nígbàkúùgbà
náhúmù
nta
northern
niṣé
nicholas
newsweek
mọlẹbi
mẹgbé
muhammad
more
melito
lọsẹ
lúpẹ
loun
leto
lapa
kẹtàlélógún
kùrukùru
kàndínlọ
kaduna,
joão
janet
isa
ilumọọka
ilosiwaju
igboro
igbafẹ
ifipabanilopọ
ibikunle
ibanisoro
hítì
háàpù
gẹgẹbi
great
gbígbádùn
gbárí
gabriel
gaasi
fùfù
fée
fàá
fernando
facebook
ere-idaraya
eran
eléruku
dọla
dẹrú
dẹra
dídún
dìtẹ
dustin
did
cindy
chi
chad
century
bíà
bíbẹ
bíborí
báwọ
bàìbàì
biblical
bangladesh
aápọn
aláìdádò
alágẹmọ
akérò
akede
akadá
agbeyẹwo
afara
adu
adewale
@
74
102
##-à
##óò
##ótì
##tù
##shi
##oju
##lati
##il
##ent
##ard
ọgọta
ẹnìkankan
ẹgbẹẹgbẹ
ṣíṣèrànwó
ṣeéṣe
ńsọ
òṣùmàrè
òtéńté
ìṣèjọba
ìwòràwò
ìjẹko
áńgẹ
àìtọ
àwátì
àtí
àtìlé
àló
àké
àjórè
àgbo
yu
yinrin
yhwh
yanṣé
wallkill
tọka
tẹpá
tógò
tóbẹ
títi
tàdínlọ
titilae
tira
sọjí
sẹyin,
súré
sínì
síkítíánì
séyìí
sàkáání
social
slovakia
seku
sek
samulo
rẹ.
road
ray
ramadan
pààrọ
pre
papakọ
pami
otito
onítè
onírẹ
ontario
olúwarè
ogunye
nítorípé
nínúu
npè
niajiria
ngbé
ne
méjìméjì
máyò
másì
márùnlélógójì
ms
mountain
morẹ
morocco
mefibóṣé
mbẹ
marc
lẹwọ
lóròó
làkúrègbé
làgbà
les
lefèvre
lagbo
laanu
kọmisana
kápánáúmù
kànyò
korobá
kingsley
kesi
kayode
jẹgúdújẹrá
jóásì
jíṣẹ
johannes
iṣ
iyá
ité
ipara
ilé-iwé
ikot
ibugbe
gbóòórùn
gbankọgbì
gbalaja
gaàrí
fífẹsè
fàyọ
fere
farasin
eva
erasmus
enugu
dọló
dutch
dinku
council
copyright
bọkàn
burkina
aràn
arugbo
amazon
aláìlóbìí
alátagbà
alágídí
alágbè
aliyu
alade
agbèjà
agbaje
afp
adúrú
ac
50,000
30,000
2016,
1923
165
118
107
##20
##-ún
##,”
##,000,000
##árì
##álì
##ájú
##nrin
##nda
##má
##les
##ker
##inu
##idi
##fé
##em
##des
##cha
##ada
ẹwa
ẹn
ẹlè
ẹkunwo
ṣèkìlò
ṣakitiyan
ṣagbekalẹ
úntò
òǹkàwé
òkòtó
ìyí
ìtò
ìrólé
ìkùukùu
ìkóbìnrinjọ
ìgbéra
ìgbèjà
ìdálẹ
àwámáridìí
àtọdún
àpótí-ẹ
àpèjọ
àláfíà
àfè
àfiṣàpẹẹrẹ
àbó
àbárèbábò
z
yíyanjú
wárápá
wycliffe
voice
ugarit
túntún
tógun
títọrọ
tíké
tìkara
tìgboyàtìgboyà
tébi
translation
tel
súúsì
sísúnmó
sísùn
sídónì
sádísì
seun
sala
rírà
rìíkú
ránni
rorun
rica
pen
patricia
onírun
onílù
oníló
oníkùmò
olùdán
olókun
nùmọ
nímọ
nára
nomba
nlo
n-ọn
mókè
máyé
marion
mahmood
maarun
lọwó
lújù
líìsì
láṣìírí
lákọ
làágùn
lopin
lonii
lode
lateef
káwó
kárúgbìn
koda,
kaare
ján
jájẹ
judith
joyce
jade,
iyi
itòsí
irúnmọlẹ
iré
iranlọwọ
imu
iké
holy
gba,
gadabú
fífarada
fìyìn
fárígá
feto
emily
dífá
dárò
dálùwó
czechoslovakia
bọla
bùrú
barrister
arin
antônio
anc
amohunmaworan
alèwílèṣe
aláìrílégbé
alájẹkì
alexandra
akan
ajoògùnyó
aiye
aisi
abánáṣiṣé
abdul
aaya
88
2,500
1936
-dúdú
#
##win
##tic
##rín
##pamọ
##ori
##oni
##ls
##ling
##isi
##her
##fò
##eti
##bìnrin
##aka
ọsan
ẹṣé
ṣéé
ṣètùtù
ńgbé
òjì
ìṣáwùrú
ìsédò
ìsà
ìsinyìí
ìlòkulò
ìloro
ìdásílè
ìdákẹ
ìdàpọ
àìṣedédé
àìlèfojúrí
àìfararọ
ààtàn
àyé
àrójẹ
àjọṣepọ
àgbérè
àdámó
zamora
yẹmi
yì
yugoslavia
tọpinpin
tọdún
tìbínú
tv
toun
síríákì
splane
soyinka
seyin,
roboto
pọnmi
profosinbajo
press
orókè
onílẹ
oliver
okunkun
nẹ
nípá
nàtáníé
noumair
niló
nicaragua
nibayii
neh
nan
mú-un
mál
mauritania
lórílẹ
líà
láwò
látojú
látibè
lionel
leon
lekan
lawujo
law
kọnsitatáìnì
kúnwó
kúnni
kókìkí
kójọ
kínni
kíkórè
kejo
jèhórámù
jáé
játijàti
juventus
johann
jimi
jesus
iṣọkan
irufe
independent
ido
ibere
hádádì
gúnni
gwen
government
global
gbéminíyì
gbinrin
gb
fola
fetísílẹ
esin
eritrea
en
eléèérí
dóríi
dòjé
débẹ
débì
dàpọ
dec
daura
darajulo
coverdale
chibok
bọyò
búró
bááṣà
báyò
bàrà
but
bob
barry
arinlè
apejẹ
apejuwe
aláìláàánú
aláwo
alliance
alice
alatileyin
aji
agbọn
afòyebánilò
adi
adekunle
abà
abiọdun
abinibi
abdulrahman
aare,
81
2014,
1929
136
##''
##…
##álẹ
##ze
##wí
##ud
##owo
##omi
##nga
##mé
##mer
##ity
##i-
##fó
##esi
##ea
##ain
##af
##ae
##ach
##ab
“bi
ṣèránṣé
ṣákálá
ṣàlékún
ṣàdéédéé
ṣatilẹyin
ṣabẹwo
ńsì
òbúkọ
ìṣura
ìyíniléròpadà
ìyàngbẹ
ìwárìrì
ìwá
ìmúláradá
ìkarawun
ìfilò
ìdákò
élíábù
èròńgbà
ègé
àṣọtẹ
àṣeparí
àìríṣé
àìdó
ààrùn
àtifi
àjàṣé
àgò
àfitó
yorùbá,
yago
wọnu
wọlè
words
way
wan
tìrítìrí
tèrente
teresa
tere
team
takò
taiwo
sísé
stephanie
sini
rí,
reuters
radio
que
pẹyẹpẹyẹ
pẹlú
púrún
pípọ
pèlú
pon
pohùn
pilẹ
people’s
people's
osogbo
oníké
onígbà
olówò
olympic
olugbodi
olopaa,
olokoowo
okowo
okiti
ogoro
nńkan
nnì
nlógójì
njá
nimoran
natalie
mọlẹ
méṣákì
miiran,
maría
mali
mal
lọrun
lọba
lúgọ
láàmù
làti
lorilẹ
kọnfú
kíyèsára
kìnìún
kéékèèkéé
keke
jẹmọ
jósúà
jòkòó
jéhóṣáfátì
justin
jos
itagbangba
idasilẹ
hórébù
haúsá
gẹẹ
gédégbé
guardian
gbọọgba
gbọnmọgbọnmọ
gbẹyin
gbéraga
gbágungbàgun
gboyega
gbalẹ
fọnran
fùkè
fààyè
fiya
far
eyawo
expository
ewèlè
electoral
ehoro
egbin
díye
dìhámó
dollars
daran-daran
dami
cedar
calabar
bábúwè
bay
bauchi
au
ariyanjiyan
apàṣẹwàá
amọ,
amúnisìn
alaafia,
akúṣè
akóló
akosemose
ajẹmọnu
ajẹmọ
ajodun
aini
agbátẹrù
ag
adolf
abíọ
abia
aadọta
87
5,000
1924
180
##17
##ộ
##ọdún
##ọba
##úsì
##ut
##ssa
##ris
##pp
##ong
##okun
##ohun
##my
##lin
##ita
##ford
##est
##din
##ber
##ayé
##ay
ọṣinbajo
ọjọru
ọhun,
ẹti,
ẹni,10
ẹgàn
ẹgbẹẹgbàárùn
ṣẹjó
ṣèyọnu
ṣádírákì
ṣàìka
ḿbẹ
ńdì
òòlù
òrí
ìse
ìfúntí
ìfarahàn
ìdádúró
èébì
èló
àìṣáyà
ààmì
àwòdì
àwokòtò
àsà
àmójútó
àfínnúfíndò
zuma
zion’s
yáwè
yin,
wín
wisdom
wasiu
wa.
utme
títo
tìṣó
tìrò
tutu
tonga
tipẹ
tafàtafà
sọmọ
sítòsí
ségesège
stadium
sodo
slavic
sepade
sekupa
sars
resource
ransẹ
ptolemy
prevention:
pinu
parowa
otun
orọ
onítìjú
onise
omojuwa
olóde
oka
ojuṣe
nínàgà
nína
nìgbà
nile-ise
mẹrinla
músítádì
míìkì
mátíré
murtala
mokanla
magidalénì
lọkò
lúu
lóòró
láìwo
láà
lana
kíkí
kélẹ
kèéta
ku,
kenkà
kelly
karùn-ún
jíja
jálẹ
jones
jija
iwọn
iseseday
ikeja
ifilọlẹ
idowu
idasile
ibò
ibura
ibanujẹ
hírámù
hospital
herd
hassan
harvard
gọngọ
gẹlẹtẹ
gùnlé
gíbéónì
gègé
gásà
gbọngan
gbéyẹ
gar
fọwọsowọpọ
fúnrarẹ
físíìsì
fífarasin
fífarabalè
fáàbàdà
foruko
football
finá
festus
federal
family
eteetí
dèèyàn
dogara
digital
debi
bọpo
bẹti
báláámù
bàtá
blue
ayọdele
ayinla
aráa
alágbèrè
aládàkàdekè
alfonso
alao
ají
ahamọ
ah
adamawa
ad
539
1927
,a
""mo
##-án
##ńlá
##úkọ
##órì
##írí
##ung
##rere
##ps
##ot
##ose
##o-
##iye
##ila
##hìn
##há
##dún
##dy
##dia
##aw
##asi
ọmọdebinrin
ọjọbọ
ẹlẹni
ẹfọn
ṣéwọ
ṣègbè
ńtù
ńbí
ùbogò
ójú
òjòlá
òbítíbitì
ìsọdimímó
ìsì
ìpalẹ
ìnùbí
ìmẹ
ìmukúmu
ìjàngbọ
ìgbáròkó
ìfowópamọ
ìdánìkanwà
ánásì
àṣàkaṣà
àtinú
àkànkẹ
àdán
àdámò
àbáyò
yankee
wẹwẹ
wuyì
waa
vera
tọkọ
térà
tèébútèébú
tunisia
tokuntokun
tijoba
símú
sáyẹ
sáwa
ss
sofin
sisí
sir
rẹni
rílé
russian
romania
roko
roberto
ricardo
review
research
pàkúté
president
per
peace
oṣun
osuogun
ope
oodua
oníwò
oníwákàtí
onu
omí
oloyede
okiki
ojúde
nígbẹ
niṣe
nife
nibayii,
mọṣalaṣi
mozambique
monikeneyin
mohamed
menuba
mbà
maps
lóyin
lásọtúnsọ
lákànṣe
lojobo(thursday),
layọ
lani
kẹsẹ
kíní
kíkúnná
kìkìdá
kéèràn
káàbọ
kádínà
kos
klein
kare
kalé
jíjìnnàréré
julo,
jay
iyekan
isreal
irọwọ
irish
ipasẹ
inúu
ijọbá
ijẹ
ijoba,
ijade
igboya
ifarapa
ibàjẹ
hi
here
glück
getty
gbajabiamila
fìtínà
fàáké
fayẹmi
fatoyinbo
eè
etídò
eroja
ellen
ekeji
egbèje
díndín
dídáṣà
dipò
dina
death
clement
civil
ce
búrẹ
básánì
bimọ
baálè
bayatyan
bata
babajide
aṣiri
ayinde
ayelujara,
atasásítà
ar
apapo,
apanirun
aláìmoore
alábàápín
ajàfúnẹ
ajayi
agbalagba
afinimò
afinihàn
adesina
900
1926
183
141
101
##”,
##ṣè
##ék
##yn
##the
##oun
##oo
##nta
##nn
##n-
##lt
##ies
##gá
##emi
##dú
##c)
##binrin
##bal
##bakan
##ap
”a
ọwá
ẹlẹsẹ
ẹbẹ
ṣọdẹ
ṣún
ṣéyẹn
ṣonígbò
ṣagbe
ḿbá
òró
òkété
ògbóni
ísákárì
ìsinsin
ìpé
ìkánjú
ìjẹkújẹ
ìjá
ìhó
ìfura
ìdágbére
áhíjà
àwíyé
àmúṣagbára
àmúmó
àkóónú
àgùdà
àfiṣèrànwó
yúrò
yinka
yamùrá
yalé
yabo
wálẹ
woju
tíṣé
tíátírà
tásù
tuvalu
to,
timothy
tepele
súà
sìnà
sàga
syria
stuart
stanley
sonia
sango
samoa
sai
rùsí
rìbìtì
roy
ribi
rente
pupo,
pliny
planning
paraguay
onisegun
omi,
omar
olga
okeere,
ojúyòójú
ojúnà
obama
nísinsinyìí
nàgbẹ
nip
newton
najú
mímí
márùndi
mr
miran,
min
mc
manuel
lọ.
lẹka
lóréfèé
láìgbàṣẹ
lorukọ
liberia
lewis
laura
lalẹ
kẹrẹ
kúṣì
kínní
káyò
kángun
kokéènì
kogun
kobe
kenya,
jíjáde
jábésì
julia
irorun
iresi
ilo
ijà
if
hétì
gì
get
gbérí
gbogbogbo
gbaga
fúnka
fòfò
fàyàwó
free
fii
eyo
ewon
dóde
dora
committee
coast
christianity
cameroon,
bíidán
bàntẹ
beatty
aṣe
ayédèrú-ẹ
awọn,
awúfùkè
ataláyà
aseyọri
arẹ
ara-a
anambra
ana,
aláìlè
akojọpọ
akinwunmiambode
akanbi
ajàfé
agency
agbábó
agabye
abbo
abacha
1910
1.
""i
##ẹrẹ
##ón
##í-
##éjì
##yó
##yl
##ula
##tán
##tz
##rún
##ram
##mar
##le,
##ima
##ibeere
##hàn
##gà
##gs
##gbọn
##for
##ef
##ct
##ano
##ajo
ṣọwó
ṣọtẹ
ṣùn
ṣíṣà
ṣuga
ṣere
ṣamáríà
ṣ
ńdá
óbédì
òṣónú
òṣìkà
ògúnníran
òfurufú
ìṣírò
ìyálóde
ìwọlé
ìwalè
ìtàjẹ
ìta-gbangba
ìsọdẹrú
ìlé
ìkádìí
ìjiyàn
ìgúnni
ìgúnlẹ
ìgè
ìgbani
ìdin
ìbàyíkájé
èèkàn
ásáríyà
ánábatíìsì
ámó
àyálò
àtọkùnrin
àtúpalè
àsansílè
àrẹ
àró
àríwòye
àrán
àpárá
àbígbè
àbà
zo
za
yẹgi
wìnnìwìnnì
wàjí
wo,
tọdun
títúbò
tìmùtìmù
tèwe
trade
tayé
tabuku
sẹnatọ
sóòótó
síná
sisọ
sim
shin
schroeder
sayensi
samson
rírọ
ram
pójú
píparó
perí
pat
par
owo,
oríyìn
organization
oníwàhálà
onkorin
oni,
olùwarùnkì
olùré
ojora
obirin
níran
nlanla
nká
niseju
nipo,
nigbagbo
ngbọ
mọran
mọni
munich
moju
missouri
mel
marshall
magdalena
lọni
lösch
láìdàbí
lars
lanka
kúṣé
kòńgé
kíyèsi
káni
kar
kaasa
jẹbi
jíjáfáfá
jébúsì
jerry
je,
iṣelu
iyùn
ivan
itakun
isé
iseju
isegun(tuesday),
inter
indus
ilorin
ikinni
ikimot
igwuruta
idoti
ibọwọ
ibode
ibaraẹnisọrọ
húṣáì
hí
house
hin
hannah
gílóòbù
grew
golden
ghana,
gbóṣùbà
gbédè
gbári
gbohùngbohùn
gbogboògbò
fomi
fifun
eyan
ewúro
ernest
ekweremadu
ede,
ebi,
dòwò
dídènà
dvd
dopin
dolówó
colorado
codex
claire
cho
cambodia
cairo
bítíníà
biodun
bbc,
balkan
bakanna
aṣàìgbọràn
aṣo
aṣekúpani
ayùn
awakùsà
aríran
apòmù
anita
angeles
andre
anchor
amọṣé
amugbalẹgbẹ
alóre
aláìṣẹ
allah
alfred
aladaani
ajinde
agbor
aegean
adeyemi
adenuga
ademọla
act
abèṣe
abeokuta
aaron
200,000
143
135
##’’
##ẹr
##òkè
##íélì
##árà
##ák
##yò
##yán
##wan
##ure
##tes
##sàn
##sen
##s)
##olo
##ole
##nb
##mba
##ist
##ip
##ik
##fu
##ene
##ds
##by
“ti
ọṣun,
ọmọọba
ọmọlẹ
ẹyìn
ẹsọ
ẹpafíródítù
ẹgb
ṣẹrú
ṣípò
ṣàgbèrè
ṣapejuwe
ḿbọ
úsà
ùlì
ógù
òs
íkóníónì
ìyeyè
ìtagbangba
ìrọbí
ìrán
ìnagijẹ
ìmutípara
ìlúmò
ìfiṣèjẹ
ìdi
ìbó
élámù
àṣamọ
àìléèérí
àìlábààwó
àìka
àìbalè
àtì
às
àpéwò
àkúnlè
àhámọ
àbàtà
yèè
wọgile
wi,
white
wayi
tọju
táṣíṣì
tol
today’s
theodore
tai
súnná
sípa
síhónì
sàì
study
square
silvia
seikichi
rọ-alátagbà
rúgba
rímú
royal
ronaldo
remi
queensland
quadri
pútú
pòrúurùu
proclaimers
pra
porto
piñata
pinnick
papaa
palaba
oroke
orilede
oníkàn
onígbèéraga
olùfi
olóòtọ
olusẹgun
ojiji
ogbo
ofurufu,
ofe
odún
ob
nímíró
níkùn
nádábù
nitorí
nis
naira,
montano
mind
men
manfred
mandela
make
lẹtọ
lófin
lílu
láńkà
láìtíì
lisbon
leo
lawrence
ladugbo
kọkànléláàádó
kẹtalelogun
kùsà
kùnrùngbùn
kùnjẹkùn
kòì
kálórì
kristian
kola
kejìléló
jírè
jákè
jiná
jimmy
iyèkan
iwobi
iud
itẹ
ile-is
igbéyàwó
ifi
idana
ibòji
had
gòjé
gátórì
gààràgà
glihow
gbàwé
gboyún
gboro
gbongbon
gbendeke
fùúùfù
fíńdà
fíjì
fìwé
fìnkìn
fokan
filadé
fikú
faso
ekpene
ebute
dúńbú
dínwó
dss
diméjì
dhaka
dawo
davido
daabobo
cook
con
charitable
centre
bẹẹni
bíótilẹ
bìtì
bìrì
bámi
brasil
biya
bernard
bayé
bashir
barber
bajẹ
a·gaʹpe
ayọrinde
awari
avocado
ato
atlanta
atimọle
atile
atiku,
asole
asaráyà
amọṣa
amaa
aláìléso
aláìgbàgbọ
alákọrí
ak
ajigbèsè
adéforítì
academy
aawo
99
185
122
-i
(pdp)
''
##16
##13
##-g
##“
##únjẹ
##óró
##ílà
##ä
##yu
##xi
##wù
##uu
##umọ
##tàn
##ren
##pọn
##orun
##ora
##ok
##ogbo
##nìyàn
##min
##lle
##lis
##jáde
##gó
##gò
##gen
##com
##aro
##ang
##age
“ẹ
“inu
ọsin
ọlọgbọn
ẹdá
ṣọlábòmí
ṣọkàn
ṣíríà
ṣèwàhù
ṣárà
ṣorẹmẹkun
ńgé
óákù
òṣémàwé
òlíńpíìkì
òjòwú
ìṣiré
ìwáṣè
ìwapo
ìtakora
ìsúnniṣe
ìnàkí
ìkọlà
ìkùnà
ìkérora
ìjayà
ìgbátí
ìgbànú
ìg
ìfàsé
ìfohùnṣò
ìbanilórúkọjé
áṣíríà
ákíṣì
àṣìlò
àṣedárayá
àtúnwáyé
àsùnwọra
ànfàní
àmàlà
àlùfààṣá
àkúrẹ
àjọsepọ
àgbé
yíó
yaroslav
wọlẹ
wàràkàṣì
worldsangofestival
wiwo
well
waako
usd
tẹsẹ
túélì
túlè
tábórì
tri
town
tim
tilé
sòdí
síṣẹ
síbikíbi
sádókù
sunmọ
sto
sorile-ede
sho
rọbí
rùnté
rìnlélọ
roro
ropo
rock
robin
pípilè
pèé
paula
oriṣiiriṣii
onítẹ
onímájèlé
olùṣekòkáárí
olówu
olókùúta
oluṣeyi
oluwatobi
ojúìwé
nílu
náà.
nàmíbíà
ny
ntẹ
nlc
niti
nikolai
nbọ
naijiria.
mùdùnmúdùn
mérárì
mustapha
mura
mekong
macmillan
lọwọlọwọ
lójúkan
láìjìyà
láwuyì
láradá
lágbájá
làyà
lori,
limited
las
laráyé
kọmiṣọna
kọ,
kẹwa
kúnná
kòkáárí
kíkórìíra
kìràkìtà
kéèkì
kulẹ
km
kapadókíà
kanni
kam
kagbako
jéhóíákímù
jéhóíádà
jábínì
jinna
jiji
isiro
ise,
ikenne
ijebu
ifitonileti
idanoripapa
hámátì
hotel
harris
gíráàmù
gàjí
grace
gov
goke
german
gbogi
gbajumọ
ganga
fínná
fàmì
food
fimú
fakọyọ
etílé
eranko
elétí
elé
dídíjú
dìrò
dápàárá
dàáfé
dunnú
dir
dibo,
des
dele
daṣé
darwin
caroline
carl
camp
bẹẹrẹbẹ
bítúmé
bojúbojú
bi:
bas
aṣojú-olódùmarè
ayan
asà
aspirin
antoine
annan
amunawa
amugbalegbe
amu
aláṣọ
alaska
agbesunmomi
adelabu
abodunrin,
aarọ
450
1917
1916
175
138
(p
##30
##%
##’,
##ọwọ
##ẹn
##ẹlẹ
##ẹgbẹ
##ítà
##ìtì
##yoruba
##yemi
##wer
##vi
##uro
##tin
##sm
##she
##res
##par
##oti
##ngo
##ney
##ness
##nce
##men
##kòó
##ilé
##ide
##ice
##ht
##fí
##fè
##fc
##ert
##eo
##ei
##cu
##aye
##ami
##adi
##abo
ọlidé
ẹni-
ẹkunrẹrẹ
ẹgbàárùn
ṣíṣàlàyé
ṣàṣejù
ṣugbọn,
ǹda
òrùn
òjìlénígba
òdo
òbi
ìṣìkàpànìyàn
ìpá
ìnà
ìmúgbòòrò
ìkẹsàn
ìkunra
ìgbóríyìn
ìgbàkò
ìfinúkonú
ìdábùú
ìbára
élíásérì
èyàn
èdìdàrẹ
árí
árárátì
ár
àìṣedéédéé
àìríná
àìrílò
àyànmó
àtọwọ
àtètèkọ
àtikó
àpa
àlùbó
àlébù
àfìdímúlè
àdóníjà
àbámẹ
zamfara,
yíì
yìnkùlé
yàrun
yipada
wáhàrì
uche
tìkárarẹ
tìkararẹ
táṣìírí
tàdi
tuvaluan
tele,
tagí
sísapá
sébédè
stalin
shared
seoul
rírun
rífó
rìndòdò
ràkunmí
romeoakins
redio
ratìṣó
pípèéṣé
pálò
public
pro
pitú
phillips
panupo
panipani
osise,
osh
osan
onítáyà
ominiranigeria
olùràpadà
ok
odì
núnì
náhórì
nwa
nulo
nnkankan
nkurunziza
niyii
nise
ngige
nebukadinéṣárì
najiria
moshood
mormon
mir
michigan
michel
merindinlogun
mejilelogun
max
margaryan
lọrọ
lẹsè
láàádó
lámò
lágbárí
loògùn
lowo,
loko
lobinrin
liz
lastma
lansing
land
lan
kọṣé
kọkanla,
kóríyá
kíkun
kèrémí
kánjúwà
kànle
koto
koni
kolu
kilo
kaarọ
jòánà
jíwèé
jáwèé
jábò
jomi
jeyo
jankan-jankan
ipadò
ikán
ikoko
ighalo
ifọ
ifowopamọ
ibugbamu
ibom
iboji
ibiṣé
i;
hande
gómérì
gíbíà
guy
governorship
gbọgbẹ
gbígbárìyè
gbìdánwò
gbájúè
gbàrònú
gbadun
fífín
fìjà
franc
finra
figa
esu
elésèé
election:
dú
dídàgbà
dìótíréfè
dáríjì
dublin
dj
contemporary
christ
chan
cambridge
bẹni-hádádì
bénáyà
bèbí
bouteflika
borrow
blessing
bat
ayodele
awúrúju
atukọ
asọtẹlẹ
aríjàgbá
aré
arakùnrin
arab
araa
apere
ape
aminu
aláṣetì
alámò
alájọgbáyé
aládàá
alábòsí
alli
alaisan
alagbatọ
akọgun
akpabio
akoni
akanda
aileen
abayo
82
2.
128
-a
""ẹ
##10
##ọmọ
##úà
##ísì
##ís
##ílẹ
##émù
##áa
##àl
##ven
##usi
##uma
##sìn
##ros
##ron
##pan
##ova
##oi
##odi
##nti
##nigeria
##méjì
##jọba
##iya
##hen
##h,
##gí
##gege
##gbogbo
##era
##cs
##bb
##anu
ọsun,
ọmọ-ọmọ
ọlọpaa,
ọbàkan
ẹrò
ṣọpé
ṣáńgílítí
ṣàdúrà
ṣisẹ
ṣelé
ópà
òsùwọ
ògbómọ
ítítáì
ìṣúdùdù
ìpajẹ
ìmú
ìmàle
ìjoògùnyó
ìhalè
ìfì
ìfipábánilòpò
ìdámò
áṣà
ásí
áhímélékì
ábíátarì
ábírámù
àṣehàn
àì
àà
àtigbó
àmé
àkòtagìrì
àfipè
yèyé
yàbùgà
wúruwùru
wíwẹ
wà,
walé
vietnam
vanessa
up
tìgboyà
trinidad
tra
tin
tawon
súnkẹrẹ
sùgbọn
sítóòfù
símínà
sàtánì
strong
sofo
sinmè
satide,
saraki,
sakoba
rìbá
ràì
pẹjó
pípàdánù
pe“
panapana
oògu
oselu,
oréfèé
operation
oníṣọ
oníyọnu
omilẹgbẹ
olùṣàyè
olóríkunkun
olorì
olivétan
ododo
oct
obí
oby
nìí
nérò
nuba
nott
nnà
nde
nd
nazi
münster
míkáyà
mìrìngìndìn
máníjà
musée
mor
mon
mojú
methodius
mejeeji,
marundinlogoje
marian
makinde,
lọọlè
lóló
lébánónì
láí
láìdá
lát
lydia
latodo
lalejo
kọkàndínló
kẹtadinlogun,
kónítò
kòkó
kulò
ka-èdè
jẹko
ju,
jijẹ
jide
jewish
jeff
jasi
isọkan
iphone
iléifẹ
ifenuko
idan
idaji
idaabobo
id
ibẹrẹ
i,
hébírónì
houston
gígun
gìtá
grand
giditraffic
gh
general
gbàájọ
gbena
gbangban
gban
gbagbo
fọnfọn
fẹyinti
fíà
fífòòró
fìríìjì
fàya
followlasg
fikun-un
fibè
favour
eyoorisa
er
emlyn
eléwé
elérò
dọwó
dídí
díaz
dìgbòlugi
dèyí
dáàṣì
cop
complutensian
chester
carrington
bùṣe
bùrò
bíá
bíkòṣe
báyọ
big
aṣè
aṣeégbíyèlé
aṣekagba
ataté
anti
amúni
aminat
amasááyà
alámọ
alákàn
alágbádá
alágbàtọ
aláfojúdi
allan
akoto
ajọṣepọ
ajijagbara
aitọ
agbéléjè
abilà
abbl
abayọ
aabọ
300,000
240
2,
182
168
126
-bìnrin
,i
(b
##12
##-ì
##-la
##—
##ọọ
##ọrọ
##ọnu
##úrì
##óṣ
##ógún
##íj
##ìkì
##á-
##àgbà
##wú
##und
##tus
##sy
##sc
##pù
##oto
##osi
##op
##ons
##oma
##oh
##og
##odo
##lla
##lia
##jan
##iy
##iti
##iba
##ght
##ft
##eye
##eto
##ena
##dínlógún
##dìí
##don
##den
##con
##ao
ṣọwọ
ṣélà
ṣébínà
ṣèwòsàn
ṣáágo
ṣàtúnyè
ṣeréṣeré
ńr
ófírì
òǹ
òrósùn
òròmọdìyẹ
ògbufò
ís
ìṣẹnupè
ìyìnrere
ìya
ìtùnbí
ìtìsè
ìtan
ìsé
ìpàrójẹ
ìpàkọ
ìmùlè
ìkórajọ
ìjínigbé
ìjáde
ìdó
ìdákó
ìbù
ìbáraẹnigbépọ
èlùbọ
áá
ásíìdì
àṣelékè
àṣelàágùn
àńfààní
àìfi
àwè
àtúndá
àpamọ
ànító
ànàmó
àkún
àkànjí
àjọse
àjẹté
àjó
àgálámàṣà
àbùùbùtán
àbíkú
yíyè
youth
yiya
yinjú
year
wộn
woo
val
tíjọba
tìí
tìrì
tàá
trust
toni
togo
tará
tambuwal
sọrí
súyọ
sówó
sójútáyé
sòro
séírì
sunkun
soto
siṣẹ
sira
sil
sharon
sanyìn
samaríà
sagbon
rùnún
rírin
russia,
robinson
rin,
pọ,
pípadà
pàkò
portugal
pasipaaro
oṣi
owó-
onírìírí
onídùúró
omobinrin
olùpa
olùdásílẹ
olùbùkún
olù
olóò
ojúṣàájú
ojutuu
oj
níṣekúṣe
níláárí
npa
nnú
nnpc
nláa
nle
nitosi
nipele
nijọba
nijoba
mùtúmùwà
márùnléláàádó
monyan
mojí
mewa
mer
melo
meje,
mara
lẹbẹ
lókèèrè
láìkó
láàárọ
lápọ
lámùrè
lákíṣì
lád
luiz
lucía
loriṣiiriṣii
ll
lizzy
lawan
language
laayo
kọọ
kùkù
kóńkó
korira
kofi
keresimesi
ker
kay
karùnléló
kaka
jọwọrọ
jíju
jéhórámù
jáírù
joro
jijawe
jeremiah
iselu
irẹsi
irú-ọmọ
ironilagbara
iron
ira
igbafe
idanre
ib
ian
howard
herodotus
ham
gígún
gákò
gro
gongo
ger
geerege
gbúngbùngbún
gbógo
gbokun
gbee
gbaruku
gbako
gbaju-gbaja
fọpé
fẹmi
féèyàn
fágúnwà
france,
feyinti
felix
eyikeyi
evans
elépo
el-rufai
ek
edwin
edun
ed
ebè
domi
dojúlùmò
diane
dagbere
chiapas
char
cerel
bòlífíà
bílídádì
bíbé
bétélì
báṣubàṣu
bámgbóṣé
bowen
billion
bikose
beat
bauchi,
az
ayára
australian
austin
asíríà
antiquities
amsterdam
amaechi
alọ
aláìṣojo
aláìsòótọ
aládúgbò
akèǹgbè
akopyan
ajesara
agba-boolu
afàìsàn
adigunjale
abẹrẹ
abẹnu
abere
740
320
3.
152
123
-à
(e
(@
##18
##11
##0,000
##ṣo
##út
##úró
##íì
##íáyà
##íá
##ía
##ìl
##ìkan
##ér
##zu
##sùn
##só
##ous
##of
##oe
##oc
##obi
##nia
##lio
##kunrin
##ks
##kha
##jè
##iro
##ica
##ib
##gbara
##fer
##ep
##eke
##egbe
##die
##del
##cle
##burg
##ble
##ban
##ant
–o
ọnàèdè
ọmo
ọkọ,
ọj
ọba,
ẹrúkùnrin
ẹnúgu
ẹiyẹ
ẹgbẹgbẹ
ṣíṣísílè
ṣèlú
ṣèjọsìn
ṣèfilò
ṣàfọwó
ǹkọ
şe
ńyọ
ńi
úrímù
ómírì
ìṣèwádìí
ìyòókù
ìyàngbò
ìtayọló
ìs
ìrìn-àjò
ìrufùfù
ìranù
ìmùkọ
ìlàkàkà
ìlàjẹ
ìkọkúkọ
ìkannú
ìhùmò
ìgbéríko
ìgbàkugbà
ìgba
ìfiré
ìfipá
ìfiniṣè
ìdùbúlè
ìdáwó
èdu
ámúnónì
áhíkámù
àṣedànù
àìlópin
àtàwa
àtàn
àtiwà
àkúrun
àkéte
àkámó
àgbéléwò
àdàpò
àbàwó
yíyára
yíra
yàyàkuyà
yanana
yahaya
wọmi
wíwádìí
wédowó
work
word
warriors
vine’s
vincent
túláàsì
táràrà
tán,
támó
takú
ta,
sù
sékélì
sábàbí
sy
socrates
silẹ.
siluu
sha
serubábélì
security
sawari
saaba
rọpo
rírẹ
rárà
rufai
rome
pàsẹ
police
pictures
orù
oríṣun
oníṣò
oníṣirò
onítúbú
onírìísí
onípamó
oníke
omije
olùṣèbè
olùtúnnirà
olówuuru
ológún
ojúlùmọ
ogunwusi
ogidi
ogba
og
obafemi
nímú
nígbó
nìkò
násárẹ
nwọn
ns
niloo
nick
nibiti
ngba
mọmọ
muratori
muna
montreal
minna
melikisédékì
massachusetts
manhattan
malaysia
lọlá
lọdún
lóògùn
lówùúrò
lókùn
lílì
láìyẹ
láìmikàn
láájò
látí
ly
lonii,
lolokan-o-jokan
liverance
lithuania
lilu
lewu
leipzig
laṣọ
latinu
lanre
kẹrìnléló
kẹrìndínló
kẹkọọ
kẹkọ
kú,
kùjó
kíló
kéfà
kámẹ
kosọkọ
koná
kogi,
kejìléláàádó
karun-un
jópà
jíǹde
jíjùmò
judy
jije
jejere
jaiye
iwure
ivory
isírẹ
ilanilọyẹ
ilaniloye
ijiya
igbàlódé
igbega
idanimọ
ibinu
hónúhàn
hughes
hall
gìrìgìrì
gégé
gádígádí
gàárì
gilọ
gbòmìnira
gbogbo,
gbegba
fífọkàn
fífúnrúgbìn
fífó
fífì
fífipá
fáàrí
fásitì
funkẹ
fayegba
eégbọn
eli
dónìí
díìsì
díá
dánú
dábùú
dorothy
djokovic
dis
dioxide
dia
department
dalẹ
creator
conference
city,
chukwu
bẹti-
búlé
bálè
buratai
bor
bin
benu
bebe
bahamas
bafana
babátúndé
ayírí
ayafi
ay
awóbùlúyì
awolowo
asùnta
army
archaeology
apẹẹrẹ
andes
ancient
aláré
alberta
alara
alabama
alaafin
ajàjàgbara
aidunnu
agbateru
afọju
adérìnọ
adélékè
adeyẹye
abí
abiy
93
500,000
114
113
1-0
1,200
,o
(m
(a
##50
##19
##-r
##-pa
##-p
##,4
##ọkọ
##ọ,
##ẹẹ
##ńg
##ł
##ü
##ílì
##ík
##é-
##ákì
##áf
##àwọn
##àmọ
##àk
##yún
##wen
##u-
##tha
##tal
##ster
##ord
##nni
##lan
##kiri
##iṣẹ
##iki
##ida
##ibi
##fú
##ev
##cy
##cus
##bin
##bas
##aya
##ans
##ane
##ali
##aga
“ko
ọmọlẹyin
ọlọpọlọ
ọlọjọ
ọgá
ọgbin
ọda
ọbasa
ẹnìkẹ
ẹlomiran
ẹkọ,
ṣùgbọn
ṣèbí
ṣàgbéyọ
ṣugbọn...
òtòsì
íṣe
ìyíde
ìtọrọ
ìtàkùrọ
ìpẹtà
ìpanu
ìmutíyó
ìlúmọ
ìkẹjọ
ìkarahun
ìgúnwà
ìfọyín
ìfẹsẹ
ìfúnni
ìfarapamó
ìdálójú
ìbánidíje
élí
ámásáyà
áhítófé
ágágì
àṣì
àìlálèébù
àwòfín
àtìrandíran
àtiwá
àta
àròkàn
àrokò
àpẹrẹ,
àmújáde
àmuyó
àkàtúnkà
àjúbàfún
àjàalè
àdàlù
àbàwọ
zakari
yìí.
yika
yiiri
ya,
wọle,
wáni
wá,
wolfgang
wina
werner
vyborg
vahan
unit
ul
túúbá
túdìí
tàánútàánú
tischendorf
tibor
tiata,
tente
taganrog
síbà
sásìkò
sáriwo
sáfírà
sàhárà
stock
spiny
shu
say
saskatchewan
rúfin
rùbà
ròrò
rìndi
ránti
ruiz
rauf
pù
pòṣé
prague
power
pil
pea
pala
paa
oòjíire
owo-ori
out
osinbajo,
orógbó
oojọ
onígbèsè
oníbìínú
onyeama
om
olọ
olókòwò
oluwaseun
oludasilẹ
oloopa
ohu
ogbin,
oe
o-
nún
níṣu
níwá
nìṣòro
náfítalì
ntọ
now
nov
nor
nku
nit
nilọ
nigín
neil
nb
nation
nancy
mọn
múṣe
múlò
mètúsélà
málítà
mákírì
mágé
mumi
monika
molebi
moghalu
mis
mira
michelle
mat
marcelo
manu
manigbagbe
magazine
lọjọru
lẹta
lóríṣìíríṣìí
lójútùú
láìy
láyà,
lás
lewaju
let
leonardo
lawal
lam
l'ẹ
kọmíṣó
kẹrindinlogun
kòó
kíkùn
kár
kápé
kori
kinní
kemika
kejilelogun
kathleen
kashamu
kara-kata
kansoso
kaabo
jótámù
jóhánánì
jàndùkú
jose
jordan
janlẹ
iṣà
iyansẹlodi
iwode
its
ito
ishiaq
iris
ipegede
io
inagijẹ
ijẹbu
ije
iii
ig
idí
idokoowo
iceland
ibẹru
hásáélì
hánánì
hutter
han,
gúlúkóòsì
gésérì
gw
guide
graph
georgian
gbojú
gbeyin
gab
fúnmi
fú
fìmò
féfé
fètò
firú
figagbága
feran
fale
evolution
evelyn
eunice
erich
elẹ
elsa
eleni
eefin
eduardo
edith
eddie
earth
d’ivoire
dógùn
dírákímà
díbàjẹ
dàábò
davis
côte
cruz
coptic
chu
charly
change
cc
bárúkì
bárábà
bun
bulletin
boju
bisi
bib
betty
bern
beesini
been
bayern
bamitíìsì
bakare
bag
babalọlá
aṣèrànwó
aṣeniló
aàru
atúmọ
ataoja
ataare
asise
aráabí
arukutu
amáratuni
aláìsí
aláàárè
alátinúdá
alásọyé
alma
alakatakiti
aladugbo
aki
ajẹbanu
afínjú
afro
adédèjì
adetoun
adedoyin
abuké
abara
ab
a,
666
3,
179
140
117
'o
##22
##2,
##-ín
##-é
##);
##(1
##ọlá
##ẹsẹ
##ṣò
##ǹ
##úd
##ójú
##óje
##òò
##ísí
##ìb
##áá
##árí
##às
##uba
##tún
##tt
##sky
##ska
##rie
##ral
##pt
##oli
##oa
##nko
##nf
##mes
##jútó
##in,
##iko
##ike
##ij
##họ
##hún
##hn
##gàn
##eu
##eri
##ec
##can
##berg
##bar
##ado
##abi
”ni
”ewe,
–i
ọtun
ọnakọna
ọlọpàá
ọdọbinrin
ọdún,
ẹran-ara
ẹdìẹ
ṣẹwà
ṣínà
ṣín
ṣílẹ
ṣàríkó
ṣowọ
ṣojo
ṣeku
òkan
ògógóró
òfé
òbèlè
ít
ìṣojú
ìṣeṣí
ìṣejé
ìyàgbé
ìwáṣẹ
ìwájú
ìwà-bí-ọlọ
ìtóótun
ìtà
ìtanù
ìnàkí-ìbẹ
ìmúniníyè
ìmúbò
ìkọkàndínló
ìkokò
ìjàlọ
ìgbòkun
ìgbafẹ
ìfikúpa
èṣí
èrèlé
áṣérì
ááfábé
áhí
ádám
àìsòótọ
àìróorunsùn
àìránmúpè
àìfé
àwòṣífìlà
àtún
àtolówó
àtibá
àsọ
àsápajúdé
àpòòwé
àpíìrì
àpèlé
àmù
àlàpà
àl
àkanda
àjẹkù
ài
àhunpọ
àdáyébá
yókù
yíyá
yíhùn
yemọja
xi
woli
wikipedia
wayuu
walaaye
wal
waec
vicky
ver
ur
tẹran
tóbìnrin
títẹríba
tíróásì
tálẹ
tundefashola
tre
torokan
titus
titobilọla
titi,
tit
tinubu,
than
temi
telegraph
teko
tei
tantan
tanra
takùn
t'oun
sígboro
sébúlúnì
sáàrin
sárá
sálà
sákárà
sunmo
soca
siso
sipele
sh
senator
samojuto
salah
rúni
rùwáńdà
rírọrùn
rèwerèwe
rábúṣákè
royin
ribi-ribi
rethink
rashidi
qumran
pómégíránétì
pòwe
págunpàgun
pàrònú
ps
prince
political
ph
petra
paramọ
papaajulo
panpẹ
owu
over
oriṣii
orin,
ori-ire
onílò
oníhò
onilu
omoyorubaatata
olùpàwàtító
olùfisùn
ol
ojọ
oju-omi
ojoibi
obi,
nísẹ
níkan
nurtw
nubà
nru
nita
nik
ni;
ngbe
nff,
nbá
name
n1
mẹfibóṣé
méjídi
méjìlélọ
méjìléláàdọ
mummy
mugbó
mp
modern
mit
mississippi
miriam
mikáyà
mayo
mallam
lọbalọba
lópó
lòpin
líla
láìfura
lákàtúnkà
ládùúrà
luigi
lowurọ
louise
loo
lominu
lima
lidia
lemọ
laya
l'ọdun
kọrin,
kẹsàn-án
kẹrin,
kùdìẹ
kíṣé
kíkérora
kàá
kunle
kr
kon
kit
kingkong
kikan
kejìlélógún
keith
jẹjọ
jẹjẹ
júmọ
jónádábù
jóni
jíjèrè
jésu
jádò
julian
jr
jimoh
jam
iṣegun
itẹsiwaju
itu
itiju
isu
ip
iowa
inira
illinois
ile-i
ikilo
ik
iforukọsilẹ
icpc
ibùwò
ibo,
hófínì
himalaya
him
hemdemov
hamburg
hai
griki
gej
gbọ,
gbórí
gbígbọ
gbenroadegbola
fẹnẹsúélà
fínéhásì
fífarawé
fàkẹrẹ
forin
flavius
five
figi
fathia
eèrà
ey
ewùrà
ewédayépọ
epo-robi
emir
elaine
economist
dúnàádúrà
díákónì
dínígò
dídúpé
dídánilé
dénúdénú
dána
down
dole
dodo
divine
digbi
den
dede
deborah
dapchi
danielle
dale
crystal
cor
comp
clinic
cares
car
bóró
buni
bol
binu
bi,
ban
bamidele
aṣà
aṣiṣé
aì
aá
ayẹ
ayaworan
awólọ
arimatíà
ariel
aremu
aregbesola
any
andreas
an,
amóúnjẹ
amohun-maworan
amina
amin
ama
aláìnígbàgbó
aláìlómi
alárìnkiri
alálàyé
alájọṣe
alágbàwí
alábàá
alawọ
alakoweyoruba
alagbada
alabi
akín
akinlade
ajoji
ajagunṣé
airport
aheso
agbeegbe
afo
abòṣì
abike
181
144
-òdì
-ò
-shittu,10
-k
-inú
-adebayo
(c
(2
''a
##6,
##500
##24
##-t
##-mẹ
##′
##–
##ọd
##ẹ,
##ǹkan
##úrú
##óà
##órí
##ód
##ésì
##és
##éré
##ère
##àní
##àná
##àlà
##àbò
##uo
##uni
##una
##uj
##udi
##tay
##sú
##ssi
##sn
##rg
##red
##port
##pon
##pm
##oso
##ob
##nọ
##nm
##nle
##nin
##mann
##le-
##lade
##kùnrin
##kur
##kh
##kar
##julo
##jin
##ius
##irin
##inni
##igbakeji
##har
##gé
##fún
##fín
##ful
##ell
##eko
##eh
##cht
##ato
##arẹ
##anì
“ì
“aare
’’o
ọyé
ọlọtẹ
ọkó
ọká
ọbàtálá
ọ,
ẹlòmìíràn
ẹku
ṣọọbu
ṣúra
ṣúnémù
ṣíméhì
ṣèwọ
ṣàwáwí
ṣàfarawé
ṣàdá
ṣorí
ṣojúure
ṣeyi
ǹbẹ
òr
òhólíábù
ìṣítí
ìṣá
ìwọn
ìrú
ìrin
ìparó
ìja
ìgbónára
ìgbékalẹ
ìfọṣọ
ìdálè
èèyan
álímó
àǹjànnú-ìbẹ
àìlówó
àtigba
àsé
àràbà
àpòpò
àpètúnpè
àpàlà
àmódi
àfọwọ
àfò
àdáṣe
zulu
zakzakky
yẹba
yíyìn
yun
wọbè
wíwù
wonkoko
wildebeest
western
wei
vol
var
uzbekistan
update
tójúúbó
títètè
tíi
tzotzil
transatlanticslavetrade
towobo
theological
terrell
taku
taari
sófo
sìnìṣẹ
ságbègbè
sáfẹ
stella
soro,
small
sivulskiy
shagari
segun
save
sapa
santos
sanderson
sada
sad
s.k
rúgúdù
ròó
ríńdíà
rírinni
rétí
roo
rom
ribiti
rat
ras
q
pẹnu
póò
págámù
págun
pààrà
pàrùpárù
putin
pupọ,
pidánpidán
phillip
pal
oṣ
oówo
other
orímóògùnjẹ
onít
onídájọ
oníbékebèke
olùṣàwárí
oluwo
ologun,
ojọgbọn
ojúmọmọ
ojó
ojojúmọ
oh
ogiri
ogbe
nís
níi
nígbá
nígbàlà
nébátì
náínì
nàjíjìn
nwá
nsẹ
nr
norman
nko
niye
nfẹ
nfa
nema
nasarawa
mẹtalelogun
mẹtala
mẹrindinlogun
mẹnu
mẹhẹ
mókun
míi
márosè
már
music
mun
mos
metala
martyr
marina
marco
manila
lódìkejì
lémúé
láìbìkítà
láa
luni
luke
loúnjẹ
long
living
lila
libya
letter
leningrad
leicester
lar
laikanju
lafiya
la,
l'oun
kẹtàdínló
káínì
kásẹ
kànbalẹ
kosi
keta,
kejidinlogun
kasí
kariaye
kaato
jẹwọ
júu
jótamù
jósíà
jókébédì
jíjọ
jíjáwó
jìjì
juliana
josué
josh
jogun
jodi
jina
jesse
iyin
iyara
itẹwọgba
itàn
itumọ
iso
isinkuoba
iròyin
information
ile-okere
ikoyi
ijọba,
ijinle
iho
ige
igbẹ
igbe-aye
igbaye-gbadun
ifẹ,
ibudokọ
ibikan
húrì
hésíbónì
hámónì
hyrcanus
hurricane
historical
hill
hananáyà
gèè
grant
gooro
geniigames
gbórúkọ
gbígbógun
gbígbára
gbígbilè
gbéṣe
gboni
gbongan
gbohùn
gbigbogunti
gbegi
gbalé
ganrínganrín
fẹẹ
fóníìmù
fítà
fálétí
funke
front
frankfurt
fojoojúmó
figagbaga
faṣọ
farabalẹ
ewa
euro
eureka
eun
enikan
england);
emmas
efcc,
d’
dòfo
dídẹ
dídè
dìran
dìndìnrìn
dámọ
dámi
dákan
dàlẹ
duru
drug
dickson
delta,
deba
damilọla
dajọ
convention
complete
collection
col
clown
che
cha
cbn
capito
bọwọ
bẹẹrẹ
bẹliṣásárì
báá
bárékè
bàlùmò
bàbáa
bur
bre
boro
bayelsa
ayée
ayálégbé
atànmó
asa,
anìkànjọpó
andrea
amnesty
aláṣe
alátìlẹ
alágbàá
alágbàtà
alu
alo
aliyev
akàròyìn
aiku,
ahasáyà
agnes
agbega
after
adébáyọ
adiẹ
adesanmi
adeola
adelé
a-
4,
350
2020
1921
1800
-ì
-t
(g
''i
""ti
##7,
##35
##-èdè
##-mọ
##-d
##,o
##,1
##ό
##ńd
##úṣ
##úrà
##ól
##ír
##ínú
##ìyàn
##ìjà
##áy
##árá
##ánú
##àg
##zan
##ys
##wè
##uko
##ub
##tra
##tis
##sù
##sín
##sta
##sile
##sho
##sal
##rre
##rat
##ona
##ojo
##ode
##mos
##lori
##iwa
##ito
##ins
##ino
##ind
##ien
##gor
##ens
##ela
##ein
##dodo
##ding
##dc
##cio
##bor
##ata
##agba
”i
“ohun
‘‘
ọs
ọrún
ọmọ-
ọmọ,
ọlọmọ
ọdọmọde
ọbá
ẹran-ọ
ẹnu-ọ
ṣíṣò
ṣírí
ṣíjú
ṣáláṣí
ṣáláńgá
ṣàìrí
ṣàná
ṣintó
ṣeleri
ńsù
ńgba
òólá
òòyì
ònà
òni
òkítì
òjòlá-ìbínú
òjòjò
ògúnnágbòn
ògbóṣáṣá
ìṣa
ìyálẹ
ìye
ìwé-mímọ
ìwe
ìlùmó
ìlòdì
ìkẹtàlá
ìkólọ
ìkékúrú
ìgbéjàkò
ìdíyelé
ìbi
ès
áṣí
áṣérà
ánátótì
ámásíà
ámásà
álífábé
ákáyà
áhítófélì
ábíhù
àìlọ
àwẹ
àwòyanu
àtẹnì
àtir
àsun
àru
ànfààní
àmúwá
àmú
àgé
àfidípò
àbísọ
àbádòfin
zainab
yọọ
yùníìsì
yàgbé
yungba
youtube
ye,
yadi
worldwide
wonyi
wol
when
wells
wara
wadi
vancouver
valentina
valencia
tẹlòmíì
tòò
tírò
tìtara
tàì
tàfàlà
tor
toju
todd
tirẹ,
tiiri
thompson
technology
taba
síà
sydlik
suleiman
sugar
stratton
stockholm
stand
sora
son
sokoto,
silé
silè
sayẹnsi
satunse
sapo
rẹwè
rẹpẹ
rùnnà
róhun
runlé
rokà
roger
rei
rani
pérésì
péjú
pálá
pàtàki
peshitta
pari,
pabùdó
oó
oòru
oyetọla
ortom
orirun
oriri
oníyàwó
oníwèé
onísẹ
onínúnibíni
onín
onílara
onígò
onígbá
oníb
onkọwe
oniṣegun
oniwa
olùdámọ
olóṣù
oluwatoyin
olaoluwa
okunfa
ojus
nékò
nàìjá
nuremberg
nt
nsinni
nse
nrọ
nitoripe
nin
niger,
nifé
nh
nature
n;
mólékì
mójútó
méjìdínlọ
márùndínláàdọ
mut
metadinlogun
mejeji
medicine
mas
management
male
mak
main
l’
lọlẹ
lọkunrin
lótìító
lòó
lísà
léyìn
lápẹẹrẹ
làrùn
luc
lorisiirisii
lokan
lojoru
lin
limbo
lhamo
lekki
latowo
lat
lapapọ
labalábá
kọju
kẹfa,
kíṣónì
kíkíyèsí
kíkànkùn
kámi
káa
kàn-án
kogberegbe
koberger
kinshasa
kelvin
kehinde
kee
kasali
kaná
kangun
jọọjó
jọlá
jésérẹ
jèhósáfátì
jákujàku
janpata
jado
iwon
iwakusa
itó
itesiwaju
ipè
ipinu
inagijẹ,
iléayé
ikẹ
igbọnsẹ
idojukọ
idiwọ
idigunjale
ibu
ibiṣẹ
hínómù
hílíkíyà
hífì
hiv/aids
heather
gígadabú
gìró
géríà
google
gl
gbọlá
gbẹlẹ
gbóyà
gbága
gbaju
fẹrẹ
fòun
fìrí
férémù
fund
french
force
fon
fil
fifa,
fidirẹmi
faradà
faith
f'ọ
every
etígbò
esa
erú
erinmi
ení
ekaaaro
egbé
egbèjìlá
egbo
ef
edo,
edgar
eb
early
dọdún
dáṣà
dáńtó
durban
dojúbolẹ
dogun
doc
didun
deng
deb
dd
daphne
dambazau
dakolo
culture
company
com
clark
cct
búló
búgò
bóò
bótilẹ
bór
bíbanilé
bángbádé
bruno
bristol
botswana
borno,
boo
bikita
bert
beni
belize
bayi,
bang
bai
bad
aṣelámèyító
aṣafọ
awako
aw
avanesyan
atinuda
asojusofin
arí
aránṣọ
araà
apẹrẹ
ao
anthrax
anikulapo
ang
amúnáwá
amúlùúdùn
amúlétutù
amóhùnmáwòrán
amunisin
amo,
alá
alumọni
al-
akú
aje(monday),
aiyeraiye
airo
aimọ
agbógunti
afẹfẹyè
afàyàfà
afa
adp
abd
aato
7,
6,
40,000
4.
1915
1909
1901
1840
154
12,
109
-gb
'a
##9,
##-ò
##-ma
##”a
##úmọ
##ö
##ów
##ósì
##òn
##íẹ
##íd
##ì-
##énì
##ém
##élé
##él
##èdè
##àwó
##àw
##zy
##y,
##war
##ves
##van
##up
##udu
##tta
##tor
##sít
##sse
##sis
##sim
##silẹ
##sia
##ser
##sel
##rra
##pada
##paa
##oló
##oji
##nr
##nik
##nie
##nba
##nan
##nai
##mọl
##m,
##lel
##lar
##kalẹ
##ili
##iga
##hal
##gn
##gh
##gb
##gam
##fm
##fficial
##elo
##ege
##dor
##dar
##chu
##cc
##awo
##awa
##apa
##amo
##aku
##ako
##aki
ọtunba
ọmi
ọkàn-an
ọf
ẹs
ẹnjiníà
ẹni,
ṣẹyin
ṣẹnu
ṣóhun
ṣòní
ṣòjòjò
ṣíṣàn
ṣígun
ṣébúlúnì
ṣèyí
ṣèkan
ṣàjọyò
ṣàbójútó
ṣunkún
ṣalábàápàdé
ṣa,
ńgbà
ùgbọ
óné
ód
òṣùnwọ
òṣ
òǹdíje
òsèlú
òrùngbẹ
òrò-ìse
òkùnrùn
òkòló
òjìlérúgba
òfì
òf
íṣí
ínrín
ígbà
ìṣọdẹ-àjẹ
ìṣeun
ìyàsímímọ
ìwoṣé
ìwakò
ìtú
ìsọté
ìsúra
ìsá
ìsinsìn
ìpayínkeke
ìnàyìn
ìlujá
ìkẹwàá
ìkógún
ìjàǹbá
ìgàn
ìforúkọsílè
ìdodo
ìbádọ
élíá
ékírónì
éfódì
èsù
ènìyàn-ṣe-pẹ
álóè
àwé
àtúnkó
àtiní
àrólé
àròjinlẹ
àrísítákó
àmí
àléèbá
àlékún
àjẹmó
àgbélé
àdùbí
àdábọwó
zeitung
zakharchenko
yẹ,
yanni
wòkè
wíwa
wìì
wike
wallace
wadii
vo
vienna
vi
tọpasè
túnra
tìwọnti
tèmí
tápá
tosin
tomomewo
tiro
timgad
thi
their
taya
taraba
tar
tam
talá
takora
takisí
takasufe
sùè
sísunkún
sìí
sántòru
sálámísì
sákéù
swingle
swa
suzanne
supreme
sul
sta
soríkodò
sis
sigismund
shi
set
sergey
sen
sekinat
sef
sea
saray
saaju,
rọni
rẹyin
rẹpè
rúwé
ròkun
rígbà
ríbà
ràngún
run,
roxana
rojọ
rivers,
riba
rawọ
ravensbrück
raji
qna
pí
péńpé
pátákò
pálí
págà
pum
progressive
polo
penny
peni
paá
oyinlade
oyetola
oti
osogbo,
origin
op
ominú
olúkálukú
olùṣalága
olùké
olùgbani
olótùútù
olófòófó
oludokowo
ogundamisi
odion
nítórí
níró
níléeṣé
ník
námánì
nájà
nàìjíríà,
nyin
nun
npe
nollywood
nilati
nikan,
nifẹẹ
ni:“
ngo
nga
neu
ndu
nat
naples
nana
naijira
nadal
mọọ
mọto
mọnúúrò
mẹrinlelogun
mẹrindinlogoji
múṣẹ
múṣé
mùnú
mí,
málónì
mugabe
monica
molarawood
mko
ministry
merinla
mere
megan
media
matt
marundinlogoji
markus
marilyn
marcos
manchu
malcolm
malagásì
maha
macron
mac
lọyẹ
lílókìkí
léfíátánì
láṣeparí
láìta
láìjáwó
láìbó
lákínyẹmí
lábùlà
làdí
loye
louvre
lil
leta
lesley
lere
lawujo,
latara
laos
lagbaaye
ladoja
kọri
kẹẹrẹ
kẹyin
kẹtàdínlógójì
kẹta,
kẹjọ,
kótópó
kófìrí
kíṣì
kárùwà
káràmáásìkí
kàyééfì
kutu
kom
know
kirikiri
keyamo
kayọde
katakata
karakata
kant
kani
kanga
kalẹ,
kalu
ka,
jẹmó
jéṣúà
jàmáíkà
joachim
jiya
italian
isis
isabel
ipile
initiative
infantino
indiana
ilẹkun
ile-iṣẹ
ile-ijosin
ikechukwu
ij
ih
igbadun
iforowanilenuwo
ifehonu-han
ifara
idanilaraya
ibajẹ,
hàì
hos
hollywood
happy
hanbok
gíré
gíganni
gri
gra
gilbert
gil
gemaráyà
gbígbámúṣé
gbésè
gbàgbà
games
gambia
gama
gal
gaan
fẹyin
fẹla
fúnun
fòní
fàkìàfakia
frieda
fowosopo
fort
fol
fojusona
filísíà
fas
faraye
faake
europa
eto-ilera
ete
epo,
eme
el-zakzaky
eko.
education
edmund
ebí
dùdù
dímé
dìgbóṣe
dátánì
duplessis
dover
doloogbe
diogenes
dilẹ
dilé
dead
de,
daura,
darukọ
daru
dara,
danu
dangote
cpc
coza
co
christina
channel
caesar
bọn
bómi
bírí
bíbáni
bét
báṣánì
bàsèjé
brumley
bojútó
belu
baku
aṣóró
aṣoju-ṣofin
ayékòótó
awùjalẹ
authority
asọté
asonipò
aroko
arabaríbí
apó
apani
amosa,
amaju
aláṣepé
aláìnífè
aláìmọtara
alákóso
alàyè
alfredo
alagbara
alabo
al-bashir
akúrẹtè
aka
ajafeto
aito
aibofin
ahóyaya
agbẹjọrọ
agbe,
adúpẹ
adò
adebutu
addis
abẹfẹ
abímbọ
abìyé
abuse
abol
abileko
aar
5,
430
176
171
164
156
155
15,000
124
1-1
1,300
00
-adúláwọ
""ko
##29
##25
##15
##1)
##..
##-ṣ
##-w
##-ko
##-jẹ
##-h
##-ara
##,i
##”;
##ọta
##ṣin
##úwa
##úrẹ
##úk
##ùkù
##ùjọ
##ùgb
##óp
##óm
##ó-
##òrò
##íọ
##ítí
##ít
##ìyà
##ìdí
##éj
##át
##ásì
##áre
##ámọ
##álá
##áj
##àwọ
##àrí
##yer
##xt
##ws
##urg
##ulu
##ui
##uf
##tro
##tre
##tos
##tia
##sir
##réré
##rn
##rl
##rer
##ras
##qui
##oy
##omo
##och
##nmi
##ni,
##mb
##lára
##low
##lon
##kor
##keji
##iw
##ipo
##int
##igba
##ier
##hù
##hon
##gú
##gel
##f)
##ew
##ett
##eré
##end
##ema
##eli
##dari
##car
##bs
##bl
##awọn
##ase
##anna
##amọ
##all
##akin
##ac
##aan
##a)
“ọ
“k
ọmọ-ọwọ
ọlẹ
ọlád
ọjọbọ,
ọbáfẹ
ọbasanjọ,
ẹwẹ
ẹnà
ẹnu-bodè
ẹgbe
ṣẹni
ṣẹgbé
ṣíṣọ
ṣíṣàtúnṣe
ṣèkà
ṣàìsí
ṣàárò
ṣàà
ṣarán
ṣakọ
ṣakoba
ńj
ńfọ
óo
òǹwòran
òtú
òt
òjíṣẹ
ògúnlọlá
ògbó
òd
ísí
ìṣègbè
ìṣákó
ìyáà
ìyálé
ìwa
ìsọtẹ
ìróifọ
ìrá
ìpéjọ
ìninilára
ìméfò
ìla
ìká
ìgbélùú
ìgbéléwọ
ìfinijoyè
ìfibú
ìdojúkọ
ìbújáde
ìbora
élà
éf
èéhù
èèso
èè
èyíkéyí
èpo
ègbè
èfòdì
ángẹ
ákánì
ádóníjà
àṣìlóye
àìṣedéédé
àwọsánmọ
àwòrò
àtòjọ
àtibè
àtaré
àsì
àrìn
àkàsọ
àjo
àgbáríjọ
àdìpò
àdàwólulẹ
àbù
àbímó
zu
yíi
yìì
yìnbọ
yéra
yàrà
yau
yatọ,
yan,
wìtìwìtì
wéé
wàràwàrà
ww
where
wayne
water
votes),
ut
tẹwọ
tẹlé
túmímù
túgà
tóku
tó,
tíríù
tíná
tàtaré
tur
tribune
trans
trafficking:
tour
tottenham
tipiri
tij
tiffany
theophilus
theology
tem
tell
teen
taylor
tajé
tafà
sọna
sọjú
sẹni
síwajú
sísáré
sísa
símù
sílóámù
síléètì
síkárì
sík
sáté
ságbárí
sábúlé
sàkání
students
strasbourg
special
sou
sol
siwaju,
sisọrọ
sipinle
sigboro
shehu,
sharibu
sept
semmelweis
sc
satide
rúná
rùngbọ
ròde
rákò
rábà
ràndùn
rolf
rokoṣo
ranjú
ramaphosa
pẹé
plu
plan
pe”
pep
parents
pale
palace
pajú
owuro
otutu
ota
osaka
org
order
opọlọpọ
oodua,20
onís
onír
oniṣowo
onigbagbo
omoyoruba
olùwà
olóyin
olóró,26
olá
oluwadii
olominira
okun,
okoye
ojoojumọ
ohun-ìní
ohun-èlò
ogunṣẹyẹ
odiwon
níto
nísisì
nípè
nínípọn
níjó
nígbànáà
nígbàkígbà
nárì
nu,
nrìrì
nràn
nri
np
nna
nmisi
nireti
ninu,
nike
ndi
ncc
naà
naijriia
mọye
mọkandinlogun
mẹẹdọgbọn
míìràn
mérìíyìírí
máàjóyúndúró
mák
màgòmágó
màdàrú
murphy
mumbai
mulẹ,
morning
mori
mission
mid
mcclintock
marè
marundinlogun
mai
magu
magomago
lẹẹkan
lẹyìn
lógójì
lóge
lísíà
láṣe
láìṣiyèméjì
láìtì
láìsinmi
láìbófinmu
lásún
lájọṣe
láginjù
lábà
lynn
low
loruko
lopolopo,
london,
logo
lodoodun
local
lincoln
lim
leere
leanne
lautech
larry
laifi
ladi
laba
l'o
kọkànléló
kẹlẹlẹ
kóò
kòs
kíi
kéílà
kénì
káwọ
kàndi
kyle
kwa
kowo
koowa
kojoda
kojo
kir
kewa
keekeeke
kebbi
katsina,
kanya
kan.
kan-
jọwọ
júbílì
jùjú
jíjíwèé
jéhóásì
jágbó
jàrábà
jun
jomitoro
jibiti
jara
jamaica
jai
jagidijagan
jadùn
jacques
jabele
jaa
iyalenu
isọ
irt
iraq
ipaṣẹ
imo,
images
ileto
ijosin
igbogun
ifẹhonu
ic
ibùsọ
háb
hon
hindu
henri
halẹ
halelúyà
gílónì
géètì
gáfárà
giwa
gerald
george:
gbòngbò
gbépọ
gbáni
gbongbo
gberasọ
ganrín
gallus
gail
fẹnuko
fẹhonu
fújì
fùn
fójú
fífetísílè
fàbùkù
foo
fiwe
fidunnu
feb
fat
fajú
ewédú
epl
emil
elimélékì
elections
ekukáká
ec
dídìde
dídárí
dáramọ
dár
doug
diego
diana
di,
defence
dave
dapo
dame
dalia
dal
dagun
cy
cristero
cowdery
covenant
coralie
connie
confucius
communication
china,
chess
chen
charlotte
case
bẹẹbẹẹ
bùláńké
bògìrì
bíbímọ
bátìrì
báláú
bukolasaraki
building
buburu
bru
bra
bou
bosnia
bon
bombay
bojúwo
bm
biafra
bere,
benedict
beijing
babbler
babangida
aṣiwere
aàyè
awímáyẹhùn
aug
atẹgun
atótónu
atlantic
atijọ
asatipo
arias
arawọn
arabarìbì
apẹrẹ,
apàṣẹ
apcnigeria
anderson
amúgbálẹ
aláṣejù
aláìjámó
aláà
aláyélúwà
aláyè
alát
alárà
aláre
alágbe
alufa
also
alexis
akúùṣé
akintoye
ajìjàǹgbara
aiku(sunday),
agu
agbede-méjì
afè
adéoyè
adá
adamawa,
abánigbófò
abuku
abosi
abobakuooni
aanu
220
1908
166
163
157
1473
1000
1.8
-ogun
-b
,osu
(t
(s
(r
(o
(inec)
(i
(d
(3
't
'i
""ọ
##42
##26
##2019
##1,
##-ú
##-m
##-f
##-do
##-al
##,5
##”o
##’a
##ọrin
##ọjọ
##ọgbọn
##ị
##ẹyẹ
##ṣiṣẹ
##úl
##óni
##òy
##òwò
##òro
##òp
##írì
##íràn
##ílá
##ígb
##ìt
##ìsì
##ìp
##ìnrin
##ìgb
##éṣ
##étì
##áṣ
##áí
##ás
##áni
##ág
##ádá
##áde
##àà
##àt
##àf
##yar
##wa,
##vy
##uuru
##ukọ
##uku
##tn
##tak
##tag
##tab
##sko
##shin
##rúkọ
##rb
##para
##oyin
##owó
##our
##orin
##ogbeni
##odun
##nse
##now
##nl
##ninu
##nil
##nigba
##nib
##nc
##mp
##mis
##mim
##meji
##mas
##mad
##lójú
##láà
##lov
##line
##len
##kon
##kiy
##key
##jìn
##ish
##imo
##ight
##ield
##hín
##hám
##hol
##fl
##eṣ
##eyi
##ette
##ern
##els
##ect
##dou
##d)
##bn
##bia
##balẹ
##art
##ars
##alẹ
##alá
##ald
“i
“e
‘a
ọọdunrun
ọyàn
ọtí-líle
ọm
ọlọrun,
ọbasanjo
ọbafẹ
ẹrin
ẹniti
ẹmẹ
ẹle
ẹjọ,
ẹgbàáta
ṣúṣánì
ṣódómù
ṣíṣú
ṣíṣeré
ṣíónì
ṣínárì
ṣídónì
ṣìnṣìn
ṣoríire
ṣai
ńṣò
ńṣ
ńpáàsì
ńkú
ńk
ńdú
órí
òṣùṣú
òṣemàwé
òròòwúrò
òréré
ògùṣò
ògbufọ
ìṣo
ìyípo
ìyáló
ìyangàn
ìwé-ì
ìwà-
ìtọjú
ìtasórí
ìsọdọmọ
ìsanra
ìrònújinlè
ìpínkiri
ìpohùnréré
ìperí
ìpadàbò
ìmúd
ìlóyenínú
ìlá
ìkúnlẹ
ìkóríta
ìjó
ìjàǹbáforítì
ìjoba
ìgbógunti
ìgbésí-ayé
ìdíló
ìbáṣe
ìbádàpò
éékà
èt
ègb
áńtípà
ásá
ánónì
ábà
àìsùn
àìgbàgbọ
àìdá
ày
àtàǹpàkò
àtiwọ
àrí
àràárò
àpadé
àkúré
àkàrà-oògùn
àgbébò
àdídùn
àbíké
yútíkó
yòrò
yorùba
yooba
yar'adua
xenophobia:
wíwàláàyè
wì
wèrédìran
wun
whitmer
web
villa
va
tẹtẹrẹ
tẹlẹri,
tẹlẹri
tóhun
tìróò
tàlélé
tumo
tukur
toò
tootọ
tojo
tite
ten
tedros
taw
tanko
tamil
tagba
sọlẹ
sẹnu
síkámórè
síjú
séráfù
sàánú
survey
stasi
spa
sor
some
somalia
sidi
shirley
shield
sheila
sayewo
sat
sajoyo
rọ-ayélujára
rìkíṣí
ràkò
russsia
rungbó
rangbandan
rafael
pòfo
pípá
pàlàpálá
pytheas
pri
presbyterian
por·neiʹa
por
pol
plateau,
pius
pittsburgh
pit
picture
peri
pas
pankéèkì
pak
pacific
oyu
owó,
osita
orúko
open
ooo
ooni
ookan
oníró
onígbọ
onka
onesmus
ondije
omu
olúfẹ
olùṣí
olùtọrẹ
olórò
olóje
olóhùn
olud
oloko
okó
oji
océane
ochanya
nñkan
nísinmi
nílati
níhìnín
négébù
náfútálì
nàka
nur
nmú
nileewe
nile,
ngbà
nf
nationalconference
nam
naijria,
nagorno-karabakh
n.
mọremi
múyẹ
míl
mésúlámù
méji
májàá
mààlúù
muslim
muk
mo,
mini
millicent
micheal
medic
maṣe
maxim
marta
mani
maiduguri
mad
lọrun,
lọpẹ
lẹhìn
lóòtó
léré
lélé
láṣeyanjú
láìro
láìjà
láìjuwó
láìfarapa
láìfa
láìbá
lárá
lámúrúdu
lámì
lágbò
láf
làìbéríà
làb
loy
lourdes
loorekoore
lola
learn
larubawa
lamidi
lal
laini
labẹrẹ
l'ọjọ
kọnu
kọmisọna
kọkandinlọgbọn,
kẹrìndínláàádó
kẹnkíríà
kúnkúndùn
kúmólú
kórira
kòòré
kítímù
kírénè
kíkọrin
kèdèrè
káríayé
kàntútù
kànpadà
korí
korin
kikopa
kiakia
kerindinlogun
kennedy
kekere,
kefa,
katikísìmù
kathy
kanna
kang
kali
jẹki
jóẹ
jórámù
jésírẹ
jésébélì
jér
jéhóiádà
jéhó
jèhóákímù
jáwọ
jàgùdà
julọ,
josef
jomu
johnny
jijọ
jigawa
javier
japanese
jale
iyarun
ivf
itanran
isale
ilé-ẹjọ
ikunsinu
ijẹkujẹ
ihuwasi
igbalejo
igba,
ifọwọsowọpọ
idilé
idajonileyoruba
ibatan
húnrìnwá
hós
hél
huwa
hus
hopkins
holland
hir
head
hay
hasmonaean
hart
harcourt
haram,
hanni
gúsí
gúnjẹ
gògòńgò
gowon
gordon
gor
gombe
girigiri
giri
georgina
geographic
gbẹni
gbín
gbígbéniró
gbígbàgbé
gbée
gbáradì
gbàyè
gbàgbó
gbolohun
gbajumo
gbajare
garawa
fọṣọ
fórúkọ
fìrì
fáwè
frost
fra
fowosi
fonran
flying
fise
fifo
federico
febi
fayawo
faraya
fararọ
faramo
eyí
ewi
ep
ens
ene
enang
elisha
einstein
ehonu
economic
déwò
déwájú
dáà
dáríjìn
duni
dubai
douglas
diwọn
diatessaron
dayò
dayé
davey
dasi
dapọ
cu
corps
copernicus
control
congo,
clarence
cheri
ch
castro
carr
card
calendar
bíwọ
bín
bíbú
bánì
bàkan
bàba
byzantium
bul
broome
braimoh
boss
borgia
bolanle
bis
bini
beyond
bennett
beck
baseball
baptist
banújẹ
back
ba,
aàfin
ayokele
ayi
awó
awokose
atuns
attah
asha
arius
arawa
arabic
apàmò
apanilé
anìkàngbé
anran
andrey
amúnigbò
amutórunwa
aláǹgbá
aláìnírònú
aláìníló
aláàlà
aláwàdà
aláp
alájọpín
allison
alicia
alhazen
alexandria
alejandro
alawo
alatako,
alarun
alagbeka
alafẹsẹgba
aladani,
akọle
akole
akala,
ajọyọ
ajọdun
ajé,
ages
agbóhùnsáfé
agbóguntàrùn
agbébọn
agbá
agbesile
agbenusọ
agbatẹnirò
afì
afikun,
adéwálé
adàlúrú
ado-oloro
abá
abikẹ
abigayl
ababa
aadota
60,000
587
236
2,520
2,400
192
1913
1911
185,000
172
16:00
167
162
161
153
1500
,22
'mo
##70
##7)
##60
##14
##.9
##-ti
##-ní
##-le
##-l
##-fa
##,7
##ṣó
##а
##ʹa
##úsí
##ùf
##ör
##ótó
##ór
##ókù
##óg
##óf
##òṣ
##òyìn
##òk
##íṣ
##íìsì
##ím
##íkì
##íg
##ìwé
##ìnì
##ìm
##ìf
##éá
##ég
##èk
##áw
##átá
##ár
##àádọ
##àm
##à-
##·
##yèsí
##yev
##xa
##wood
##vin
##ush
##uki
##uda
##tara
##str
##sto
##sson
##ski
##ríà
##ro,
##rk
##ret
##real
##rc
##p)
##opo
##ogún
##ogo
##oge
##níà
##nìí
##nyi
##nna
##ning
##nes
##nder
##mán
##less
##lem
##las
##lara
##koo
##kejì
##jade
##ive
##ilo
##ih
##ico
##ich
##hy
##hing
##gójì
##gomina
##gbára
##fáà
##fis
##fat
##fan
##ex
##ess
##emo
##elle
##ella
##eje
##egun
##ega
##dil
##de,
##cia
##cen
##bol
##bara
##ance
##amu
##aj
##ag
“à
“ki
ọmọlọ
ọmọ-ìlú-fún-ìrìnnà
ọlọla
ẹmọ
ẹk
ẹb
ṣọra
ṣúkaṣùka
ṣùnnùkùn
ṣíb
ṣéb
ṣánlè
ṣálúmù
ṣádókù
ṣàìní
ṣugbọ
ṣamí
ṣakiyesi
ḿmú
יהוה
ǹgọ
ńṣẹ
ńwá
ńpe
ńg
ńf
ók
òǹdè
òy
ògúnṣínà
ògb
òg
ìṣojúfúnni
ìwúwo
ìtúsílẹ
ìtani
ìsòro
ìsimi
ìpààrọ
ìpo
ìpadàré
ìmújáde
ìlú,
ìkọkàndínlógún
ìkù
ìkì
ìjagunmólú
ìgárá
ìfàsí
ìfowópamó
ìfojúsùn
ìfipábánilòpọ
ìfipábáni
ìfa
ìdíbàjẹ
ìdásè
ìbìnújẹ
ìbáramu
ét
élíáṣíbù
édẹ
èyìínì
èk
áwọn
ámù
ám
ál
ákáánì
ád
àṣọ
àṣekú
àǹfàní
àìs
àìró
àìr
àìnítìjú
àìb
àtìbè
àtà
àtisọ
àtis
àtipadà
àtid
àtagbalagba
àsúnsí
àsán
àsomó
àntí
ànràn
àmìn
àlùmọ
àlàkalẹ
àkọtó
àkọmò
àkè
àkànmọ
àkàndá
àkekèé
àjẹpó
àjí
àjàpadá
àgu
àgbà,
àgba
àfòmó
àdúà
àdìtú
àdàpè
àbùṣe
àbáyọrí
à-
zaynab
zaria
yọwọ
yúódíà
yúfúrátè
yìnlàárò
yáná
yaró
yanranti
yangon
wọwọ
wọgbó
wààrà
wood
why
were
wande
wabba
wa,19
vine
ve
vas
ure
urban
und
umaru
tọwọbọ
tẹjúmọ
tòlótòló
tísí
tímótíù
tìyanutìyanu
tìpá
tìnnì
tápà
tánánná
tàkìtì
tàdúrà
tuntutn
tro
tr
towers
tipá
tik
tijọba
tigbòn
thank
tewogba
tennessee
talk
take
sọkalẹ
súfèé
sòmálíà
síṣòro
síṣe
síńtíkè
síwé
sílífá
síkílágì
síjọba
sí,
sásítà
sádùúrà
swaziland
sven
subu
sub
stein
sr
speakyoruba
spe
soo
sok
sob
so:
so,“
shell
servetus
sergio
sere
ser
selters
sefilole
sdp,
sap
sal
saka
saara
ríró
rìín
rìnléláàdọ
ráfímù
rudolf
ros
ronu,
roald
rita
rid
rh
renee
reg
ranrí
rak
rain
pẹrẹ
pòùngbẹ
písídíà
pákò
pot
pompeii
pom
poly
pinni
pidán
phillipe
phd
peters
pejọ
pe,“
pay
paradà
pana
pamí
pamo
palm
palczynski
ounjẹ,
otto
oto
oscar
orísirísi
orisiiriṣii
onísùnmò
onílùú
oníjó
onídán
onis
onike
omutigbagbeise
omode-binrin
omoadegun
olú-ìlú
olùṣelámèyító
olùsìn
olùgbàlejò
olóòfà
oluwọde
olugbani-nimoran
okunra
ojú-omi
ohun-
ogunwusi,
ogunpa
ogbẹni
ofiisi
odun,
odin
níyanjú
níwájúu
níkàlè
nra
nnulá
nm
nke
niwon
nifee
ndá
nasir
naf
mọbi
mùkúlú
mólú
mímọyì
méjì,
máákà
máru
mur
muni
mosalasi
moravia
mona-mona,
mineral
mi-
mes
melòó
meli
marriage
man’s
maleebu
mago-mago
maccabee
maalu
lọèdè
lọ;
lẹnuwo
lúù
lílá
lémi
láíláí
láìw
láìt
láìròtẹ
láìbojúwè
láb
làbárè
lura
lukùn
lucy
lou
lone
lon
lingo
lilongwe
leti,
lese
lena
le,
layo
layeoye
latọdọ
last
lagosat
lagbaaye,
kọla
kẹtàléló
kúṣè
kút
kír
kílè
kíl
kíkúrò
képe
kédé
kébékébé
káráyé
kàrátè
kànlélọ
kyari
kunrin
krísti
kristina
kra
kolawole
ko,
killing:
kid
kha
kerinla
kaṣíà
katherine
katarzyna
karla
kap
kand
kabiru
jẹri
jódánì
jímọ
jíjúbà
jéró
jéhóíákínì
jéhóáhásì
jád
jà,
just
jumọkẹ,
jum
jonas
jodie
jharkhand
jeremy
jehó
jehovah
jeffrey
janu
jak
jacqueline
jabrayilova
iyipadaojuojo
iyen,
iwd
itankale
isẹgun
irà
irungbọ
irowo
irinajo-afe
ir
ipilẹ
ins
imp
imisi
iléèṣẹ
ilégbèé
ilakaka
ila-orun
ikabo
ijokoo
igbèsè
igbo,
igbeaye
igbalode,
ifehonuhan
ifeanyi
ifasẹyin
idaduro
iccpr
ibùba
ibiti
ibara
i.
hẹrẹ
hìntì
hitoshi
heritage
heidi
hafeni
gúnwà
gú
gáṣónì
godo
gmt:
giuseppe
gbọdò
gbígbìn
gbálẹ
gbona
fòté
fífòpin
fìrìgbò
fìdùnnú
fèròwérò
fà,
franco
fit
fisita
fikùn
ferrarieko
fay
faseun
ethiopia,
esan
erékùsù
elere
eke
egbogi
egba
eda
ebe
ea
e,
dùrù
dídu
dídarapò
dàpò
durant
dur
dpi
douala
doré
doko
dio
dijk
digba
dick
dibọn
dejí
dawn
daran
daramola
danny
crimea
conte
come
collins
clinton
clarke
cisneros
cer
care
camille
bọrọgidi
bọpobọyò
bínú,31
bílíọ
bílíhà
bílí
bíbára
bìrìkìtì
bás
bàyìí
business
brook
bowo
botilẹjẹ
boston
bojumu
board
bir
bet
ber
baṣọ
bayìí
baru
barnes
bari
bademosi
baale
azeez
ayá
ayapupo
atm
asé
assembly
asobode
ask
arẹwa
arínúróde
ariya
area
aran
aní
anton
ant
annette
ankara
anemone
aláìṣòótọ
aláìníláárí
aláìlóye
aláìgbọló
aláàárẹ
alásè
alárẹ
alákòóṣo
alágbèékà
allied
alasẹ
alain
akọbúlọ
akorin
ajíbógun
airi
ahmed:
ahamo
agunbiade
agbon
afẹnifẹre
afá
afri
afiseyin
afirika,
adúrótini
adénẹ
adolfo
adedimeji:
abọrẹ
abókúsọ
abókùúsò
abigail
abdulrazaq
abdel
abamẹta,
215
1905
1903
186
151
15,
142
129
108
1.7
1,700
1,400
-ìjẹ
-oorun
(pdp),
(co
(apc),
##]
##8,
##4,
##-í
##-se
##-s
##-lo
##-ja
##-gbo
##-gba
##-da
##-b
##-1
##,to
##,a
##,9
##(n
##'a
##”i
##ọkan
##ṣán
##ńt
##úrò
##új
##úg
##úb
##ú-
##ótù
##ós
##írá
##íp
##ìẹ
##ìrì
##éf
##èlú
##áwọ
##ání
##ábù
##àyé
##àwé
##àti
##àrá
##zon
##zar
##ye,
##wole
##well
##vel
##use
##un,
##ukun
##uga
##tín
##town
##tom
##ther
##ted
##tec
##tas
##sán
##sp
##skiy
##sit
##sing
##sch
##s),
##row
##ric
##ree
##rah
##ra-
##pl
##ping
##per
##osis
##oní
##ond
##oga
##nth
##nis
##nic
##ni-
##ndo
##ndi
##mon
##mir
##lélọ
##luk
##lol
##lic
##lam
##lak
##lah
##kóhun
##kán
##kes
##ken
##kel
##kat
##jian
##iyi
##iu
##isa
##iran
##imọ
##ille
##igi
##ig
##if
##hel
##hai
##gè
##gy
##gue
##gos
##gbìn
##gbakeji
##gar
##fọn
##fíà
##fen
##eta
##ejì
##egb
##eg
##eda
##eb
##dùmarè
##dín
##díd
##dr
##cos
##cke
##chel
##burn
##borí
##bet
##bele
##bay
##aṣ
##az
##ayọ
##ayo
##ayan
##ast
##arin
##an,
##adé
“m
“f
‘m
ọrọrún
ọrẹ-
ọmọńlé
ọmọk
ọlọkọ
ọladapọ
ọkẹ
ọka
ọjaja
ọdọọdun
ọdun,
ọbalaye
ệ
ẹyọkan
ẹy
ẹnitan
ẹgbò
ẹgbàálemẹ
ẹfò
ṣùtì
ṣíṣọpé
ṣíṣá
ṣíṣàkóso
ṣíṣi
ṣìnkún
ṣémáíà
ṣèyàsímímó
ṣèròyìn
ṣèbé
ṣàp
ṣoro
ṣetọju
ṣe.
ṣayẹwo
ṣayò
ḿmọ
ḿba
ǹtì
ńtẹ
ńsá
úríjà
òro
òkìtìpupa
òkè-
òk
ògòn
ìyísódì
ìyáálé
ìwàrẹ
ìtànyòò
ìsínjẹ
ìsin
ìrànṣẹ
ìpàn
ìpinu
ìnú
ìmùlẹ
ìmàdò
ìm
ìlúwè
ìlú-
ìkọsè
ìkẹrìnlá
ìkùùkuu
ìkélé
ìkejìlá
ìkangun
ìjẹgàbalé
ìjábọ
ìjàrá
ìgbóhùn
ìfẹnukonu
ìfàsẹ
ìfarapitú
ìdíi
ìdérí
ìdápadà
ìdánwò,11
ìdákúrekú
ìdun
èṣù-kékeré
èèṣì
èyin
èl
èbìbí
áṣá
ásérì
ámínónì
ámá
ábínádábù
ábígáílì
àṣeyè
àìséwu
àìpẹ
àìnísùúrù
àìlẹ
àìkìí
àyọ
àwámárìídìí
àtọjó
àtúntè
àto
àtidá
àsálẹ
àrọwà
àràárọ
àre
àpòró
àpéjọpọ
àní-àní
àlu
àkàlà
àkàgbádùn
àjọgbà
àjùlé
àjàké
àj
àgùtàn
àgógó
àgbéléjìká
àbíkẹ
{
zi
zaire
yẹtuyẹtu
yìn-in
yìn,
yánhànhàn
yoshi
yorùbá.
yoowu
yodì
yanyan
yanayana
wúlè
wómúwómú
wònyí
wíwọkò
wákátì
wàl
woroko
women’s
wolẹ
wolii
wisła
wgad
very
uruguay
under
um
udoma
uba
tújú
tók
tìkúùkù
téyìí
táíwò
tàkúté
tutọ
tunmọ
toripe,
tobáyà
tiri
tinu
they
tha
terr
tenancy:
teli
tegbòtigaga
taye
tari
taraba,
talẹnti
talélógún
tajá
sọya
sẹgbẹ
sùgbón
sóríi
sírákúsì
síl
sìn,
syriac
sullivan
sport
southern
smwlagos
sisa
simone
silver
side
serena
sekolu
sei
sebastian
scientific
school,
saye,
savage
sau
sale
salai
safety
sachsenhausen
rẹrin
ríb
ráágó
rám
rànmíyàn
rud
rou
ross
rod
roberts
rie
revised
rebecca
raymond
ramon
pẹtiróòlù
póun
pípalè
pél
py
project
primary
poo
pax
pawo
pasuma
paríparì
paré
palestine
pajude
oṣinbajo
owé
owon
osman
orí-
oris
oremeji
oníyebíye
onírúirú
oníkùnsínú
onidajọ
omoyele
omoniyan
omo-o
omo-egbe
olúbàdàn
olúb
olùyẹ
olùgbẹ
olõtọ
olóògùn
olód
olukuluku
olukolu
olubori,
olos
okè
okuta
ojúgun
oda
obo
oa
nọmba
nùn
nísàlẹ
nírè
nílọ
nígbàkúgbà
nígbàkugbà
nìt
nèdè
nábónídó
nova
notre
nmọ
nj
nitorinaa
nitootọ
neymar
net
nero
nar
napoleon
nani
mọr
mọna-mọna
mọbí
mọ.
mẹta,
mẹfà
múr
mínà
mílíó
méjílélọ
máṣọ
máá
máyàle
márùndínlọ
márùndínlógún
máhá
mumu
mot
moral
mole
mohammed,
methodist
meteeta
merinlelogun
melanie
mee
mb
maxiculture
maurice
masharipov
maryland
margarita
mann
mali,
maada
lọndọn
lẹyẹ
lóṣu
lóò
lówe
lóg
lòògùn
lérúgba
lédèe
léb
lèdè
láìláya
láìkú
lájò
lágbedeméjì
lágb
làkó
lviv
lug
lucky
lost
loru
lorilede
lore
loni,
lojo-ru
lojo-isegun
lobi
lie
lesotho
lelẹ
laṣẹ
lalong
lac
kọwó
kọkandinlọgbọn
kọjáa
kẹtẹkẹtẹ
kẹrindinlogun,
kúu
kúro
kùsílè
kógo
kíláúdíù
kíkéré
kí,
kìnínní
kéyìí
kéwì
kèrékèré
káb
kànkùn
kuti,
kurt
korìíra
kokandinlogun
kogboogun
kla
kira
kini,
kilomita
kil
khafi
kewaa
kenyamo
kel
katie
kath
kasa
kansas
kankan,
kaju
kadà
kabamọ
jòkó
jíjá
jámọ
jehofa
jar
iyanu
isẹ,
isunsiwaju
isese
irora
ironúpìwàdà
irenaeus
ipẹjọ
int
image
im
ilọsiwaju
ilori
ile-e
ikọsilẹ
ikẹja
ijakulẹ
igbẹkẹle
igbodegba,
igbin
ide
idanile
idande
ibù
iberu
ia
húlídà
hùnún
hò
hémánì
homer
home
hil
har
hamilton
gíbéà
gégi
gébà
gègèrè
gunlẹ
gt
grammy
gr
gospel
gon
goma
godwin
gbópọn
gbéw
gaul
fọlá
fúnwa
fírífírí
fífìyà
fáìlì
fàjè
fur
freedom
fiṣe
fiyèsí
film
ferguson
fct
faṣé
fan
faj
fagídí
eṣu
eèpè
eyofestival
erìgì
erna
epo-rọ
enrique
emilia
em
elias
ekurá
ei
egypt,
eeru
dọjọ
dípúló
dídara
dìgbò
dávid
dásí
dáràn
dàda
dries
donetsk
dolóògbé
dojukọ
dim
dijú
derby
democracy
dem
debates:
debate
darren
dalé
cyclopedia
cro
cristiano
county
copenhagen
constantinople
co/
clo
clara
chief
chelsea,
cestius
cau
canterbury
call
cal
ca
bíì
bér
bàyéjẹ
bus
bro
brittany
bri
bos
bo,
biblioteca
bel
beatrice
beach
baṣubaṣu
bayii-
bar
balùwè
babi
aṣojuṣofin
aṣia
aṣewọ
aólẹ
aáwọ
ayọkẹlẹ
ayálégbé?,9
awolọwọ
awokọṣe
awada
atún
asíwájú
asi
ash
asairubo
arúmọjẹ
aroju,
aritaṣéṣéṣì
arinrin
apor
aparo
angelo
amúṣé
amúniyò
amusìgá
amoye
aláì
aláàfíà
alás
alálè
alágbà
alábó
almaty
aleefa,
alafo
akọṣẹmọṣẹ
akẹgbé
akólòlò
akotun
akiolu
akikanju
akande
ajiṣafẹ
aj
aise
ahesọ
aguda
agege
agbelebu
agbebon
afà
afin
affairs
af
adúró
adùnyùngbà
adáríhurun
adojutofo
adiyẹ
adepoju
abele,
a.
550
5.
455
4,500
28,
270
250,000
25,000
2013,
1899
149
14,
-èdèe
,pe
,n
(se
(nigeria
(l
(as
(4
##:30
##97
##5,000
##5,
##27
##...
##-sí
##-j
##-bá
##,ni
##ọs
##ọgbọ
##ẹta
##ẹk
##ṣú
##ńjẹ
##ńj
##úw
##únm
##ún-
##úmù
##úm
##úlù
##úgba
##úf
##ùtù
##ùr
##ùmọ
##òt
##òr
##ò-
##ña
##ï
##ítọ
##íl
##ìs
##ìlú
##ìlà
##ìk
##ìj
##ìd
##ê
##ép
##én
##édì
##éd
##ès
##èjì
##áájú
##átà
##áp
##ál
##á,
##àrà
##ànì
##àjẹ
##àgb
##àdé
##yem
##xy
##xe
##wájú
##wat
##ved
##ukú
##tútù
##tle
##ta,
##sánì
##stein
##sise
##sar
##sam
##rte
##ril
##rib
##qa
##pí
##pì
##pàdé
##pri
##ota
##osu
##osa
##ood
##onú
##odu
##oda
##nín
##nte
##np
##nlọ
##nit
##nal
##nah
##mónì
##mm
##mel
##lóg
##líà
##lua
##lm
##lli
##lif
##law
##kal
##ka,
##jùlọ
##jun
##jal
##iyan
##innu
##inc
##ilọ
##iji
##ija
##igeria
##ife
##hí
##hà
##ged
##geb
##gbépọ
##gal
##field
##fel
##eyin
##ets
##eng
##ence
##dio
##dd
##ction
##cti
##col
##ces
##cer
##bul
##bis
##bil
##bert
##ben
##aji
##ademola
”ogbeni
”l
”gege
”awon
“won
ό
ộ
ọṣ
ọmọdekunrin
ọmọ-ìlú
ọláńlá
ọjọru,
ọgọrin
ẹé
ẹwu
ẹsin,
ẹrú,10
ẹm
ẹl
ẹkẹ
ẹh
ṣòòròṣò
ṣíṣun
ṣímírì
ṣíl
ṣìn
ṣéálítíé
ṣérà
ṣé-é
ṣètumò
ṣèr
ṣáráì
ṣál
ṣàkùṣákù,
ṣoworẹ
ṣina
ṣemáyà
ṣeb
ṣawari
ḿb
ńs
únbárìn
úló
óun
òṣíẹ
òróòro
òrékelé
òké
òkè-ńlá
òke
òjí
òhún
ògúnǹdé
ògúníran
ògbín
òb
ísirẹ
ír
íjípìtì
íj
ìṣẹlẹ
ìṣáátá
ìṣunjáde
ìwúre
ìwé-
ìtù
ìsúnkì
ìrúkèrúdò
ìròkurò
ìpéjọpọ
ìparundahoro
ìkàn
ìkuukùu
ìjókíjó,
ìji
ìhàlẹ
ìfiló
ìfe
ìdún
ìdàkudà
ìbìnújé
ìbálé
ìbákẹ
èèmó
èèdì
èyí,
èr
èjìgbò
èbìbì
áréópágù
ápólò
áhímásì
ádo
ábíbù
ábélì
àìsòdodo
àìsáyà
àìj
àìdíbàjé
àìdára
ààr
àyàn
àwákàn
àtó
àtòun
àtètèkó
àtik
àtidé
àtagbà
àsá
àrè
ànkóò
àmúga
àlùbami
àludé
àkàgboyè
àjọjẹ
àjàbó
àg
àfiṣe
àfinásun
àfilélè
àdámọ
àdàmò
àdàlú
àdà
àbáwọ
yẹtí
yẹrí
yààyàà
yucatán
yorubanewyear
yobo
yobe,
yiyọ
yii.
yeko
years
yaw
yari
yanílẹnú
yangan
yamùúmùú
wọn,11
wòó,
wíríwírí
wétè
working
wonu
wolè
woli:
wojú,
wizkid
win
willis
willie
williams,
wil
westphalia
weibo
warri
walẹ
veera
uzoho
universal
uganda,
u.s.news
tẹrú
tẹlòmíràn
túwíìtì
tòyetòye
títage
tìl
tìjà
tàtijó
tàlélọ
two
tunbo
torile-ede
ton
tomé
tohru
titage
timor
tie
theo
tet
television
tbilisi
tau
tapa,
taj
tacitus
sọr
sọ.
súìtì
sùn-un
sóòrùn
sór
sól
sófárì
sísúre
síséèémí
sípórà
síntáàsì
símírì
sílífà
síle
síkùn
sígbó
sélóféhádì
séb
sápamọ
ságónì
svetlana
sur
sunkẹrẹ
sports
sp
sopin
sofia
soe
smw
sla
sise,
seé
serge
seranwo
seni
senegal,
sel
sebẹ
scripture
sco
scandinavia
satani
sar
sant
sakara
rọpárọsẹ
rójútùú
róbó
ríṣẹ
ríróye
rékábù
ráre
ránṣọ
rámótì
rum
ru,
romo
rocha
ring
reyes
ren
rasak
raquel
ranpẹ
rama
ral
rabiu
queens
píìmù
pípààrò
pípàdé
pínníṣín
péórù
pán
pàsán
psychology
pryce
prevention
polytechnic
po,
plc
plat
plague
pipadanu
philips
phil
pee
paz
patri
pass
part
parker
pancreas
panchayat
pagbo
padanu-emi
o’connor
oṣelu,
oókọ
oòrun
otelemuye
oshiomole
oshiomhole
oríì
oríre
ori,
opa
oníyẹ
oníyìnyín
oníyèmejì
onípele
onílà
onílera
oníjì
onífàyàwó
oníf
onkọrin
omi-
olùṣekòkárí
olùṣ
olùtúnniràpadà
olùpọ
olùfọkànsin
olùdáàbòbò
olùborí
olólu
olók
olympics
oluwole
oludasile
oloyinbo
olorí
oloo
olayinka
olawale
okere,
ojúmìító
ogunjo
ofu
obe
nṣẹlẹ
nṣiṣẹ
nṣ
níṣ
níni
nímukúmu
nígbàanì
níbìkan
níbití
nìyàn
nìlú
nérì
npọ
noël
non
nlò
nkú
nil
nightingale
nicotine
nibẹ,
nhan
nawo
navajo
nationale
nak
mọl
mẹẹrin
mẹtadinlogun
mẹrindinlọgbọn
múu
múló
mílíkà
méh
màrúndínlógún
muritala
muriel
mul
mosquitoes:
moran
moon
money
mona
moh
mog
mob
mikhail
micronesia
melbourne
mejidinlọgọsan
md
mattias
margaritha
marduk
mana
malam
magdeburg
madrid,
lọg
lẹṣẹ
lẹmi
lór
lónì
límẹ
léti
lékòó
lé,
láìtún
láìsọsè
láìs
láìléwu
láìlálèébù
láìf
láìdúró
láìdà
láìd
láálí
lápa
lákọlákọ
làm
làkọ
làjà
lucia
lucas
lowolowo
lowell
lor
lol
lojoru(wednesday),
lodo
liverpool,
live
like
lidiya
ler
len
lem
legbe
lasema
lami
lagbára
kọlà
kọ",21
kẹtadinlọgbọn
kẹrè
kẹhinde
kúrékùré
kúr
kúmínì
kíra
kìrìsítíẹ
káńtà
káàárè
kát
kárísọ
kádéṣì
kollington
kol
knežević
kilaasi
kik
key
ketadinlogun
kejìdínláàádó
keiko
kayefi
kayeefi
kata
karaite
kanmọ
kane
kakanfo
kai
jàmbá
justice
johan
jawo
jamb,
jala
jag
ja,
iwe,
itara
itanobaigala
itan,
isegun(tuesday)
irọsẹ
irẹwẹsi
irin,
iparun
indan
imoran
ilé-aiyé
ilu-o-fara
ilepa
ijeoma
igu
igbal
idẹyẹsi
idojukọ,
idibò
idanimo
ibib
ibani
hẹlẹhẹlẹ
háragàgà
hál
hák
háhá
hr
hor
honorebu
heroin
harvey
harrison
harmony
haa
góm
gín
gíl
gíg
gutenberg
greece
gre
grande
graham
gongo,
godswill
globes
girama,
gilọlá
gig
gbẹnután,
gbẹgẹdẹ
gbólóhu
gbígbóríyìn
gbáremú
gbádu
gbád
gbàárin
gbà-máà-bínú
gbina
gbajọba
gandhi
gala
gabon
gaa
fọláké
fọkò
fọba
fòò
fífàyè
fífojúsó
fìl
fébè
fárùngbò
funmilola
funjè
foró
forest
foni
fire
fimo
festival
fayoṣe,
fathers
farapẹ
faranse,
fapa
fanda
falz
fall
eẹ
eé
ewébẹ
eto-abo
essene
erèé
erekusu
era
elés
ekòló
ej
eg
eebu
ebonyi,
dẹtí
dẹrun
dúrà
dónì
dòrìṣà
díámọ
désàlè
démà
dánwò
dàárọ
dàwáàrí
dànu
dosumu
dogba-dogba
diẹ,
dinígò
dimẹ
didi
dey
desert
deli
dea
dayo
danjuma
dabarú
dabaa
dab
cynthia
crowther
cristina
creole
corner...jáde!",9
consolation
claudia
claude
chioma
chel
challenge
cebu
cast
carlo
carin
cara
cant
campanus
camila
bọlè
bún
béè
bélíálì
báàjì
bálá
bàsíà
bàrá
busola
buruji
burma
bureau
bringbackourgirls
bridge
brazil,
brand
bisikíìtì
bengal
bello,
beau
balogun,
baka
bahram
bab
aṣafa
azikiwe
ayuba
awu
atura
atun
atinúkẹ
asale
ará-ọ
arg
apr
apaniyan
apanilẹ
anenih
andrzej
amẹrika,
amóhùn-máwòrán
amharic
americana
ame
ambọde
aláìmòye
aláìlábùkù
alámòójútó
alákatakítí
alák
alumoni
alpha
alas
alako
alaja
alai
alafọrọlọ
alabapade
akọkọ,
aká
akure
akiko
ajólórí
agbatẹru
afìkà
aforiji
ae
adẹniwò
adéfilá
adéd
adálórí
adáhunṣe
adetunji
adesanya
adc
adamu,
acid
abínú
abiọla
abel
abdullah
@a
997
24,000
202
2-1
2-0
1906
1835
177
158
1535
150,000
1,3
0-0
,s
,nigba
,lo
,ki
,awon
(u
''ẹ
"obasanjo:
"malaria
"iya
##66
##31
##28
##21
##-ta
##-on
##-ni
##-kú
##-gb
##-di
##,ti
##(a
##",1
##ẹs
##ẹnu
##ṣ
##ṅ
##ǹgb
##ńb
##ā
##úra
##úkù
##úgb
##ókè
##ób
##òw
##òsí
##òrùn
##òrán
##ò,
##íra
##ínà
##ín-
##ílè
##ídí
##ìy
##ìrí
##ìr
##ìkò
##ìkà
##ìgì
##ìgbà
##éé
##éy
##ét
##ça
##æ
##áímù
##árọ
##áná
##álà
##ákà
##ád
##àár
##àr
##àj
##yne
##woran
##vit
##uwa
##ude
##ubu
##tti
##tri
##ting
##tam
##t,
##sókè
##ste
##sion
##sey
##sba
##sb
##rí-
##rus
##rim
##rem
##re,
##rand
##pre
##polo
##pla
##pinpin
##pc)
##pc
##oṣ
##otọ
##ote
##oru
##oran
##ope
##omb
##ology
##okan
##oja
##ofa
##nó
##nz
##nw
##nus
##nso
##nov
##nom
##nní
##nne
##njú
##ngb
##net
##nds
##mótì
##mma
##mit
##mil
##mie
##lùú
##lyn
##lop
##lok
##log
##lera
##lai
##lagos
##koro
##kis
##king
##ket
##kas
##joba
##ium
##itan
##iss
##ios
##ink
##ides
##ias
##hus
##hua
##hot
##hes
##hat
##gun,
##gil
##ghan
##gers
##gee
##fúnni
##fur
##fir
##ewo
##ewe,
##enti
##eme
##ejo
##eau
##dúró
##dt
##dro
##dj
##dine
##dg
##dani
##dai
##cin
##cho
##bos
##bel
##avi
##ass
##ash
##anjú
##aja
##africa
##able
##aal
”e
“ó
“nigba
“lati
“ir
“ijoba
‘i
–e
–a
ọwọ,
ọmọla
ọmọbóníkẹ
ọmọbìrin
ọlọja
ọkùn
ọjọ,
ẹẹdẹgbẹta
ẹwọn,
ẹw
ẹr
ẹlérìí
ẹf
ẹdùn
ẹbíi
ẹburu
ṣòpò
ṣíṣèwádìí
ṣíṣàìka
ṣíṣàwárí
ṣíṣàfọwó
ṣísérà
ṣínáì
ṣím
ṣíkọ
ṣìgún
ṣérú
ṣèrànrán
ṣáré
ṣáná
ṣàìfi
ṣàlejò
ṣawuyewuye
ṣalá
ṣak
ńta
ńl
ńká
ńfa
úráyà
ón
ób
òṣiṣẹ
òp
òní,
òkù
ògìrì
òdú
òbò
íṣímáẹ
ík
ìṣúnsíwájú
ìṣun
ìyàsó
ìyanṣẹ
ìy
ìtọpinpin
ìtu
ìtasánsán
ìríran
ìránṣọ
ìrànwú
ìrun
ìro
ìpò
ìpàdánù
ìpà
ìnákúnàá
ìnura
ìlòèdè
ìlòsíni
ìkọkànlá
ìkẹtàdínlógún
ìkáàánú
ìjè
ìjo
ìgbésíayé
ìgbéayé
ìgbálè
ìfọgbó
ìfún
ìfìmò
ìfinúmòye
ìfilọ
ìdára
ìdàámú
ìdu
ìbíní
éfúrátà
èékán
èwé
èw
èrìgì
ènìyan
èkùrọ
èj
ègùn
áténà
ámáríyà
àṣepé
àìwú
àìw
àìrówóná
àìróorunsùntó
àìlówóló
àìléwu
àìláyò
àìfọkàntánni
àìfohùnṣò
àìbánilò
àì-
ààjìn
àyọlò
àwòkọ
àwámáàrídìí
àw
àtẹranko
àtiy
àrì
àrin
àpèjá
ànímò
ànàgó
àmu
àlàjá
àkọs
àkú
àkójọpò
àkèré
àjùlọ
àjóòkú
àgùntàn-ìnàkí
àgbéyọ
àgbára
àdájẹ
àbùjá
àbámọ
zone
yọri
yọ,
yẹyẹ
yíyèbó
yìnrìn
yá,
yuroopu
yorùbá:
yorubaproverbs
yorubanewsalert
yewa
yer
yang
yahweh
yah
wọrọkọ
wíwúlò
wíwè
wíwakò
wéréwéré
wàáhù
wà.
wsn
wright
worldcup
wonyii
wittenberg
willy
which
wendy
voltaire
vitamin
vin
vicki
via
vel
vat
umahi
u-20
tẹwa
tẹti
tólè
tól
tòòsí
tíó
tíyà
títutù
títunilára
tísílẹ
típé
tíntín
tímínà
tíkíkù
tígírísì
tìyàwó
tìy
tìnì
tìkálára
témánì
táténáì
tákòókò
táb
tàánú
tàkúrò
tàkó
tàbítà
tyler
ty
tuc
ts
transylvania
tracy
towo
tobago
tob
tito
titan
tire,
tiranë
tip
tikẹẹti
tia
tes
tb
tanzania,
tama
taka
tagbáratagbára
tagalog
tabo
sọkà
síwọ
síta,8
sínámónì
sílébù
síjọ
sìwa
sérà
sér
sél
sáńbíà
sáábà
sál
sáfúrónì
sàà
support
suiter
sterling
stanford
sola
so,”
ski
sit
sisi
sirika
sij
sign
siasia
shiite:
sex
sergei
seleucid
secondary
search
scrabble
sawon
santo
samuelson
salo
said
sabine
rọọkun
rẹmọ
rù,
ríni
rímónì
rí;
rìsíìtì
rìnnà
rèterète
rànan
ry
round
rojú
rinkinkin
rin-
riana
retweet
razak
rap
ramat
raków
raj
rabidun
quin
qa
pẹran
púà
pípó
pípà
pìwàdà
pì
pátakò
pur
psg
professional
prem
poro
pop
polynesia
pipe,
pillars
payín
pate
parent
pap
pam
pag
pabo
oṣuwọn
oṣiṣẹ-fẹyinti
oṣisẹ
oùn
oyun
oshodi
orísìírísìí
orí,
orji
oojire
oníyèméjì
onírúuru
oníp
oníj
onijibiti
onigbagbọ
onigba
omotola
omooba
omodebinrin
olùtè
olórogún
olódu
olò
olé
oluṣedanwo
oluworan
olusola
olongo
olodoodun
olive
olaf
okú
okùnrin
oko,
ojú-ọjọ
ojojumọ
ogunde
ogu
odídẹrẹ
oduduwa
od
observatory
obasanjo,
nít
nísin
nípà
nílú
nílà
níhòòhò
níg
nìwà
náádì
náá
náàni
nà,
nwo
nti
novgorod
nláàdo
nk
njú-pọ
niwa
niurka
nitorina
nito
niséà
nipe
nilẹ,
nigeriadecides
nie
nibo
nibikibi
never
nag
nadia
naani
mọnamọna
mọló
mọgbó
mọd
múnádóko
míṣòfò
mákà
mábìlì
moo
monthly
mont
monde
monamona
mol
moke
modúpẹ
mod
miller
military
miles
midinmíìdìn
mia
metalelogun
merc
mek
mehe
maud
marùn
marseilles
marin
maribor
mariam
mare
marcus
maputo
mao
mansur
makurdi
makirofóònù
maersk
lọọ
lọsan
lẹlẹ
lúwà
lów
lót
lórígun
lójú,
lójojúmọ
lój
lógun
lílékenkà
léè
láṣepé
láìwádìí
láìsan
láìr
láìpa
láìmú
láìm
láìlé
láìgbéyàwó
láìfòyà
láìbímọ
látaré
lásùn
lár
lál
làw
luz
lulu
luca
loris
lopọ
lolórí
lit
lew
leba
lawon
latigba
lasu
lang
lale
laka
lae
ladọja
l'ọjọru
l'orilẹede
kọrẹ
kọjúùjà
kẹtàléláàádó
kẹsan,
kúrunmí
kún-un
kùtà
kùr
kùfẹ
kòrókòró
kíún
kírun
kíkún",31
kíkùnà
kìígbó
kìígbà
kìn
kése
káràmásìkí
kànrìnkàn
kàl
ky
kul
krist
koriya
konstantin
kiriati
kikun:
kia
khan
ket
kesaríà
kejìdínlógójì
kejidinlọgbọn
kedere,
kate
kat
kas
kanlẹkun
kangaroo
kal
kabiyesi
kaarẹ
kaabọ
jọpọ
jẹnu
jürgen
jór
jókí
jíjófòfò
jíjò
jìjọ
jáàmù
jásípérì
judson
judaica
jon
jinki
jesús
japan,
janturu
janice
jama
jalẹ
jakarta
jah
iṣẹgun,
iyààrá
iyabọ
itumo
istanbul
isinku
iside
irọlẹ
irúu
irowo-irose
iriwisi
iranṣẹ
ipalara
intelligence
indi
inal
imò
imole
ilésanmí
ilé-
ilé,
ilumọka
illustrated
ileeṣe
ile-ẹjọ
ikooko
ikawe
igunnuko
igbódìgò
igbá-kejì
igbaye
igbagbe
igb
ifẹhonuhan
ifitonileti,
ifarada
idọti
idá
iderun
idam
ibukun
ibanuje
hínì
hìnwá
hánúnì
hánáánì
howell
hort
hid
hebrew
healthy
hazel
haruna
hannelore
gẹrun
gíb
gérárì
gáló
gy
guusu-iwọ
gua
gray
got
gogo
gnostic
glasgow
gideon
gianni
gerrit
germany,
genoa
gbọpé
gbójúgbóyà
gbémi
gbèdéke
gbájúgbajà
gbàràmù
gbàmí
gbàgì
gbigbokun
gbigbani
gbayi
fìkanra
fìbọn
fèèrè
fàbò
ful
flu
floriano
fle
fischer
finn
filip
figbá
fifọn
fif
fernand
fern
fere,
fehonu
fao
falẹ
falomo
fakẹrẹ
fakoyo
fagunwa
fabiyi
ezenwa
eye:
everton
etígbọ
ernst
erewa
elétekéte
elédu
elena
elede
eledaa
ein
egun
egbèjìdínlógún
egbon
d’étaples
dùn-ún
dídúróṣinṣin
dídáná
dìmú
dìdé
délẹ
dáádáá
dárayá
dáp
dágónì
dáb
dàjèjì
dàbíi
duro,
dun,
dolapo
district
disease
diran
dibò
diabetes
devine
denise
delphine
daṣọ
das
daniela
dachau
d'
cs
cr
corporation
connecticut
congo),
community
commission,
cnn
chin
chemi
chand
cellarius
cdc
ccpr
caucasus
casa
caledonia
bú-òde
bíṣọ
bíl
bíbínú
bén
bátíṣébà
bámú
báj
buyi
burnett
burg
budapest
brandenburg
books
bonkẹlẹ
bolen
biritiko
biri
bieyekosedieyele
biblia
biba
berossus
benin,
belfast
barra
baroka
barclay
barack
balo
bak
bade
aṣọbode
aṣíwò
aṣàyàgbàn
awòràwọ
awonisàn
aviv
atigbadegba
atar
atannijẹ
atan
asala
arógunyò
aràrá
arctic
archi
apálá
api
aperin
anj
anglo
angie
ananíyà
anambra,
amber
aláìṣahun
aláìrí
aláìnípinnu
aláìnílélórí
aláwé
aláta
alám
alákínkanjú
aláké
alájọṣiṣé
aláj
aláfọ
aláf
aládani
alábá
alábàápàdé
algeria,
alayeoro
alaba
akọs
akẹẹgbẹ
akóyọyọ
akèrègbè
akárúgbìn
akápò
akurẹ
akupó
ajó
ajalu
aiyede
airise
ail
agbódegbà
agboọlá
again
afiniṣè
afigigba
adẹrinpoṣonu
adẹrin
adótini
adáhunse
adventist
adryana
adelaide
ach
accra
abọgibò
abdulateef
abaraámóorejẹ
aala
a-j
a-b
@mbuhari
90,000
650
600,000
280
21,
2015,29
2012,
2,700
2,200
1999,
1912
1907
1700
169
159
134
-r
-e
(su
(national
(independent
(ba
(19
(1
'ko
#a
"àṣà
"world
""ni
""m
""b
""awọn
##96
##90
##80
##65
##63
##5)
##47
##45
##4),
##3,
##0)
##.6
##.3
##.0
##-ùn
##-wo
##-ku
##-ba
##(p
##"".
##’o
##ọsẹ
##ọrun
##ọlọ
##ọk
##ẹd
##ạ
##ṣan
##ǹd
##úrí
##únl
##úkú
##ùúr
##ùs
##ùm
##óyè
##ót
##ókò
##òsì
##ògb
##òde
##íí
##íta
##írà
##ímọ
##íló
##íi
##íbá
##ìírí
##ìw
##ìsin
##éṣì
##éè
##éta
##ékì
##é,
##èr
##ègbè
##èb
##ão
##áṣì
##ásá
##ánu
##ájọ
##áhì
##ànà
##ànj
##àbà
##zel
##zal
##you
##ying
##yii
##xp
##wòrán
##wol
##wit
##vil
##val
##uy
##urọ
##ume
##uan
##tító
##tv
##tr
##tl
##til
##taj
##sọn
##sie
##shire
##rákì
##rp
##royin
##roy
##rash
##raka
##rad
##pú
##pín
##ph
##pen
##pe,
##pat
##pas
##over
##osin
##osh
##ort
##old
##ogbon
##ofin
##ntí
##nsi
##nnì
##nmọ
##nde
##nci
##nch
##na,
##n)
##máa
##mi,
##m)
##lùm
##lék
##lus
##logi
##lly
##llo
##lee
##l,
##kúrò
##kál
##kom
##kad
##jẹr
##ji,
##ja,
##iṣé
##iz
##iyàn
##ite
##inlẹ
##in-
##imi
##ige
##igb
##ifẹ
##hú
##hùn-
##hó
##hé
##hor
##hman
##hir
##gù
##gou
##gin
##g)
##fàní
##fa,
##eva
##eth
##eru
##elt
##ekun
##eka
##ejò
##eed
##edo
##edi
##dínl
##dog
##dic
##dent
##das
##dale
##daj
##d,
##cher
##care
##bád
##bri
##bre
##bra
##bio
##bc
##bak
##bac
##b)
##aà
##ative
##ath
##adota
##abe
”“
”eto
”bakan
“w
“n
“eyi
“bo
’’aare
‘o
ọọfisi
ọtọtọ
ọtẹ
ọpẹmipọ
ọparun
ọmọọmọ
ọmọrí
ọmọba
ọlamiju
ọgọọrọ
ọbà
ọbafẹmi
ẹwadapọ
ẹsẹẹsẹ
ẹlẹgbẹjẹgbẹ
ẹkùn,
ẹgẹrẹmìtì
ẹgbàafà
ẹg
ẹd
ṣọkọ
ṣúà
ṣùù
ṣób
ṣífúrà
ṣérísésì
ṣèrú
ṣèfà
ṣáìnà
ṣát
ṣárónì
ṣánlẹ
ṣàṣàyàn
ṣàṣefihàn
ṣàárẹ
ṣàgb
ṣubu
ṣofin
ṣingó
ṣawo
ṣakoso
ḿ
ǹkankan
ǹbáyé
ńwò
ńwo
ńté
ńrí
ńpọ
ńp
ńn
ńdẹ
ùbógò
óti
ól
òṣóòsì
òṣèlu
òṣu
òṣogbo
òǹtẹ
òpùrọ
òmù
òm
òlù
òkúu
òkúdù
òkùnfà
òku
òjòlà-ìbínú
ògóóró
ògòǹgò
òfúúrufú
ítamárì
ísímáẹ
ìṣúná
ìṣefínnífínní
ìyọṣùtì
ìyíló
ìyen
ìyawọlè
ìyan
ìwú
ìwée
ìtàwé
ìtànsán
ìséraró
ìsèlú
ìsinsinyìí
ìsa
ìru
ìpọn
ìpani
ìpadà
ìmóríyá
ìmánúé
ìlọsílè
ìlì
ìlàr
ìkẹè
ìkówèéránṣé
ìkejìdínlógún
ìhòhò
ìgbóhùnsáfé
ìgbéjáde
ìgbálẹ
ìgbàtí
ìgbàlẹ
ìgbàl
ìgbo
ìfọkàntánni
ìfọkànbalè
ìfá
ìfohunpènìyàn
ìdáwọ
ìdàrúdàpọ
ìdàmú
ìdahoro
ìbòòji
ìbímọlémọ
ìbéèré
ìbáṣẹpọ
ìbánilò
ìbàǹtẹ
ìbo
énọ
él
éfáímù
èṣu
èése
èèmò
èyínì
èsìn
ènìyàn,
ènì
èkùró
èd
áti
ámínádábù
ák
áhítúbì
ágírípà
áfríkà
àṣọrégèé
àṣìírí
àṣeyọri
àìsọ
àìròtẹ
àìníṣé
àìnítè
àìnífè
àìláàánú
àìf
àìbọ
àìbò
àárín-in
àyànmọ
àyànfúnni
àwí
àwa-arawa
àtúnkọ
àtèmi
àtu
àtiṣí
àtiṣ
àtilà
àtif
àt
àsùngbádùn
àse
àrògún
àrànmó
àpínwèé
àni
àmútọ
àléfà
àlààáfíà
àkúnlẹ
àkìtàn
àkà
àjákọ
àjàmò
àgádágodo
àgbébọ
àfàìmọ
àfilé
àfaradà
àdí
àdàpọ
àd
yọyọ
yẹhùn
yíyèkooro
yíde
yí,24
yááyì
yàá
yon
yinyin
yii,”
yale
yaba
wọko
wàdùwàdù
wuu
wtpa
world’s
wor
witness
wipé
winnipeg
wine
wilfred
wildlife
wayuunaiki
watford
wanda
wakabi
wag
vs
vil
venice
updates:
una
ug
tọjó
tẹramọ
tẹlifísàn
túnla
túni
túnba
tíṣòro
títàpá
títàbùkù
tíkú
tí-
tìófíló
tél
táì
tááju
tátáró
tàtè
tàjè
tuxedo
turkey);
training
toñi
toyosilagos
toto
toku
tis
ti,
theatre
temidayọ
tatiana
tapólì
tapo
tap
tall
tak
tadínl
sọmọlo
sùnámì
síwa
sítá
sínu
sílí
síké
sígun
sétígbò
sètò
sár
sánmàn
sàdáńkátà
syndrome
susana
success
stéphane
staff
spring
sonja
soli
sohun
sogun
slav
skat
siṣé
sipago
sipa
sinú
sinaitic
sii,
sig
sibẹ,
shrine
shina
shiite,
shaw
seychelles
sey
services
sep
sejoba
second
sdp
scr
sciences
scho
sche
sch
saseyori
sas
saro
santorini
sanfaani
salt
salaam
saki
sak
sahel
sahara
sagbakale
sadi
sadede
sabẹ
rẹr
rúb
ród
rírìnrìn
rík
rí-ọkàn
rádaràda
rukerudo
ruk
ruga
ruby
rr
rotterdam
rosario
roberson
rob
riro
rinin
rhodesia
reyder
revolution
republic,
ref
rec
ratcliff
rashidat
rand
rajasthan
rainbow
raheem
rafiu
ra-ìgbómìnà
queen
quechua
pọwọ
pọntí
pọnbele
pẹn
pú
pírísíkà
pípinnu
pérísì
pépà
páṣúrì
párí
páránì
páropáro
pápákọ
punch
proverb
programme
price
popo,
planeti
pis
pine
pie
pidgin
pe“a
pes
perete
peodavies
peleke
pel
pearl
pdpnigeria
parun,
papapkọ
palẹmọ
oṣupa,
owolabi
owen
ouro
ottoman
others
osinbajo:
osce
oríṣii
orílè-èdè
orí-ayélujára
orunmila
oromo
oriṣi
oriade
oreọ
orange
ooto
ooreọ
oodunrun
oodua?,30
oníṣè
onísòwò
oním
oníl
oníkùgbù
oníka
oník
oníbà
onkowe
onipele
omiró
olùs
olùgbaninímò
olùd
olówólayémọ
olóri-
olójúsàájú
olufemi
oludibo,
oluda
oloselu,
oloro,
oloogun
olomi
ologbondiyan
ologbe
oli
olalekan
okòólénígba
ojúl
ojulumọ
oju-irin
ojo,
oianuk
ogota
off
odọmọde
níṣàlẹ
níwọn
níwáju
nípàá
níd
nébò
nàíjíríà,
nàró
nàpadà
nà-mọ
nysc,
nya
nuhu
nrí
nran
nora
noemí
noa
nkè
nkà
nka
ni”
nikú
niko
nikalẹ
nigínnigín
nigerians
nigbagbọ
nid
nibudo
ni,24
ner
ndì
ndé
naomi
namibia
nad
nab
mús
mín
mílétù
mét
més
máàpù
márà
mámúrè
málì
mágbèsì
mànà
murray
muiz
mt
morrison
mora
mohunmaworan
mohammadu
ml
millie
millennial
miliọọnu
mili
miki
middle
mich
metele
meri
memorial
mecca
mathew
mata
masai
marwa
marosẹ
market
map
mandarin
malik
malami
mala
makar
maj
maiduguri,
mah
magadan
mab
lọwọlọwọ,
lọjọbọ
lùwé
lóókọ
lóní
lód
lílenípá
léniló
lén
láìṣàárè
láìṣ
láìsò
láìsì
láìlè
láìkọ
láìkà
láìgbé
láìfọhùn
láwa
látọdúnmó
láròjinlè
lámọ
lámù
lálòpé
lágò
lág
lábààwó
lábo
làì
làwá
làpálàpá
lyons
luxembourg
lorraine
lopọ,
lom
lojobo(thursday)
lojo-bo
lojo-abameta
lojiji
logun,
lof
literature
lib
lexicon
lev
leonard
lea
lav
latina
lasbca
lanlẹhin
lagọ
lag
labé
labor
laarọ
l'á
l'a
kọwọrin
kọm
kọlẹ
kọkanlelogun,
kẹwa,
kúsì
kúnra
kúbé
kùránì
kóńkóló
kóówá
kówèé
kónílé
kòm
kògbóògùn
kít
kíb
kìrí
káànú
káréà
kál
kádésì
kàǹga
kàkàn
kwok
kunni
kumo-kumo
kokkinakis
kokanlelogun
klaus
kiyesi
kiwó
kimono
kimberly
kigbe
kho
kes
keller
kejìdínló
kebbi,
kaẹ
kazu
kayodeoyinbo
kawa
katrina
kato
katharina
kantíkantí
kansíi
kanrin
kampala
kamara
kalin
kabba
kab
kaakiri,
jẹẹ
júpamó
júkálì
jùdéà
jóh
jéṣ
jéfúnè
jám
juwọ
juni
jonathan,
jere
jayne
java
jap
janfaani
iṣẹle
iṣi
iy
iwoye
iw
itusilẹ
itun
itsekiri
isise
isan
irrawaddy
irinsẹ
iri
ipamo
inọ
inspired
innocent
ing
indian
inakuna
imo-
ima
ilọrin
ilé-ìṣọ
ilé-e
ileẹjọ
ikẹta
ikorira
ijakadi
igbọ
igbona
igbokegbodo
igbekele
ifipagbajọba
iduro
idunu
ibugbe,
ibaṣepọ
ibale
hórì
hín
híhan
hélì
hélénì
hámù
hy
https
http
holt
holocaust
holly
hiroshima
hilton
hepatitis
helsinki
hel
hee
hazard
hausa,
hat
hangogo
hali
hahaha
hadi
habib
gúnmọ
gìnìntìn
gérísímù
gèlètè
gátagàta
gul
guam
greg
gombe,
gladys
gla
girls
gertrud
gerri
geo
gene
gege-bi
ged
gbù
gbígbéra
gbéga
gbàlà
gbowo
gborí
gbogbogbò
gberu
gbaṣọ
gbab
gate
gara
gann
gamaliel
f’
fọláke
fúyẹ
fínlẹ
fífí
fífaṣé
fìlásayépọ
fásítì
fàr
fàpẹẹrẹ
fuoye
funfun,
friends
foya
four
foto
forbes
flo
fis
fir
fid
fetísí
fer
felisa
felipe
farapamọ
farajọ
fapá
face
fab
eze
ez
exc
ever
etikun
esinoro
erik
eo
enikeji
emp
emergency
elégbèje
elsie
el-
eja
eid
egbẹ
egbe,
eewọ
edé
edition
ecstasy
eckert
dẹyẹ
dúbúlẹ
dòò
dìgbòóṣe
dáṣọ
dáṣé
dárá
dàárò
durotoye
dudu,
dua
dollar
dití
diploma
dik
didier
democracyday
dayọ
dau
dapchi,
dangajia
damaris
dam
dalung
dagb
cuppy
criminal
craig
cra
cou
corinna
cori
consuelo
colombo
college,
cole
coca
cle
ci
churchill
christmas
childrensday
chiamaka
cherie
chai
cell
catalan
cata
cassiodorus
carey
cap
canary
cameron
called
bẹrẹ,
búòde
bíríbírí
bír
bíbùáyà
bìnàkò
bìlísì
béélísébúbù
bétí
báwí
bár
bál
buwọ
bush
bow
bordeaux
bojo
body
blood
blablacar
bingham
bil
bibliothèque
bes
beryl
berkeley
beneficial
basel
barbados
bankole
bangkok
ballot
bal
bakana
babylonian
baba-
aṣi
aṣetinú
ayánilówó
awonuga
awolọwọ,
awati
atu
atomic
atletico
atijọ,
asọfin
assisi
asirimagazine
asin
ashley
arẹgbẹsọla
aru
arsenal,
arizona
ariwa,
archaeological
arch
aram
araceli
apàrora
apapa
antonia
amáyé
america,
amel
amayedẹrun
aláìwà-bí-ọlọ
aláìlábùlà
aláàárù
alárò
alár
alápè
alákóṣo
alájè
aláfẹ
aládàńlá
alábahun
alába
alumooni
alum
alps
alejandra
albion
alakata-kiti
alaisan,
alagbe
akór
akóni
akínpẹ
akí
aku
akojopo
akinwumi
ajìjàgbara
ajè
ajumọ
aju
ajemonu
ajalèlókun
aisinru
aimọye
aiku(sunday)
ahmadu
agẹṣinjagun
aginju
agbépo
agboole
adárarégèé
adára
adyan
adun
adigun
adedimeji
adeboye
adama
abẹokuta
abẹl
abúléko
abdulrazak
abbl,
abameta(saturday)
aayo
aawẹ
930
8,000
8,
588
400,000
360
234
1881
1850
16,
1517
14,000
13,
11,000
10,
1,9
1,800
1,2
1,1
,m
,12
(y
(ni
(ma
(ka
(ac
''mo
''ko
##86
##76
##62
##56
##32
##23
##.5
##.4
##-ò-
##-è
##-te
##-si
##-ro
##-omi
##-je
##-19
##,3
##(e
###
##“i
##ọṣ
##ọyọ
##ọp
##ọkàn
##ọ-
##ẹt
##ẹrin
##ẹm
##ẹlu
##ẹli
##ṣín
##ṣèlú
##с
##и
##ǹk
##ş
##ńs
##ńl
##úp
##ùnrin
##ùkú
##óso
##ómù
##ók
##ójì
##òl
##òkú
##òkun
##òj
##òb
##íríà
##íré
##íkí
##íb
##ìkítà
##été
##élógún
##ée
##èl
##áyé
##áti
##áta
##ánn
##áfá
##àtà
##à,
##zh
##zen
##yuk
##yt
##yro
##ym
##yen
##wọlé
##wéré
##wádìí
##wh
##we,
##wah
##waa
##vir
##vf
##uto
##uta
##un-
##umo
##umb
##ule
##ugh
##uge
##ugba
##tótó
##tit
##tir
##tho
##tel
##tai
##síà
##sím
##sílè
##sík
##sí-
##sérì
##sville
##soke
##si,
##sea
##sara
##s.
##rík
##rés
##rr
##rol
##rog
##rm
##rit
##rh
##reb
##rans
##qua
##py
##pro
##pr
##ple
##pho
##p,
##oyè
##oth
##oos
##ooro
##oludari
##ogoji
##obo
##o)
##ní-
##né
##náyà
##nwo
##nu,
##non
##nlá
##nkan
##nji
##nir
##nid
##ngu
##neu
##nen
##nad
##mʹ
##mou
##mina
##mbu
##mal
##mag
##lọl
##lùkù
##lórí
##léb
##láy
##làá
##lp
##lor
##logical
##ller
##lk
##lian
##lh
##leyin
##lelogun
##led
##lb
##lav
##lat
##lasiko
##koto
##kod
##km
##kele
##jọp
##jn
##jag
##itì
##itt
##isti
##inl
##ikí
##iku
##ije
##ibe
##hò
##hr
##hood
##hl
##hip
##him
##head
##gua
##gne
##ghi
##fààní
##faa
##ever
##erd
##eral
##elli
##ebu
##ear
##dìẹ
##dán
##dra
##dis
##dim
##db
##dam
##cor
##cla
##c),
##bàá
##bun
##buk
##bro
##br
##born
##book
##bit
##bank
##ball
##ayi
##atu
##ats
##anni
##akan
##ajà
##aju
##agu
##ago
##ael
##adà
”ademola
“lo
“gege
“gbogbo
“b
ọwọja
ọsinbajo
ọru
ọp
ọmọlàkejì
ọmọb
ọlórun
ọlátúnjí
ọlayinka
ọlalekan
ọkọọkan
ọkada
ọgb
ọfiisi
ọdọmọbinrin
ọdẹrinde
ọbadíà
ẹnipé
ẹni-mímọ
ẹmí
ẹlẹgẹ
ẹja,
ẹgbà
ẹ-ẹ
ṣọṣẹ
ṣẹra
ṣùrù
ṣór
ṣókótó
ṣòfófó
ṣíṣèdájó
ṣíṣàìgbọràn
ṣíún
ṣíp
ṣímé
ṣíbà
ṣìgìdì
ṣéènì
ṣéf
ṣèk
ṣáì
ṣámá
ṣákìí
ṣágo
ṣàìnáání
ṣàìmò
ṣàyà
ṣàk
ṣàfẹ
ṣewadii
ṣepade
ṣelẹ
ṣalábàápín
ṣagbako
ńwọ
ńtìlì
ńtà
ńgbọ
ńdí
óyá
ós
òṣù
òṣé
òǹgbẹ
òǹdó.
òòtọ
òyìbó
ònkà
òmìíràn
òdù
òbìrìkìtì
íṣímáélì
ísókó
ìyàkuyà
ìtẹnumọ
ìtàku
ìtanùlé
ìsọd
ìsásí
ìrúfin
ìrònù
ìránńṣẹ
ìrà
ìrugùdù
ìpéǹpéjú
ìpàǹtí
ìpe
ìpadàbọ
ìmóríyágágá
ìkẹhìn
ìkósọfúnnisí
ìkòríta
ìkínní
ìjọba,
ìjẹgàba
ìjàyè
ìjànbáforítì
ìjàm
ìhò
ìhàlè
ìgẹ
ìgbóguntì
ìgbéṣẹ
ìgbéró
ìgbàṣe
ìgbafàájì
ìfúnnítumọ
ìfòyà
ìfètòsó
ìfarapa
ìdógò
ìdòwú
ìdáǹdè
ìdánilóró
ìbùsùn
ìbálópò
ìbar
ìbaka
ébérì
èèhù
èyìn
èkéjì
èka
èe
èb
áta
ásírí
ásáhélì
áráúnà
ánákì
ámírámù
ámélékì
ádárì
ádámọ
àṣíá
àṣí
àṣewọlé
àṣepọ
àṣegbé
àìrọ
àìnírònú
àìlèṣ
àìlágbára
àìkìísùntó
àìjẹunkánú
àyàdì
àya
àwà
àtúns
àtor
àtit
àtipé
àtip
àtimọ
àtij
àtifé
àrún
àràn
àra
àpóstélì
àpatì
àníṣé
àmẹ
àmójúbà
àlò
àlàbora
àjè
àgékù
àgbélèbú
àgbáàràgbá
àfàì
àdúrótì
ze
zanoah
zagreb
yọnu
yọnda
yìnin
yìi
yáníbo
yánnú
yow
yori
yobá
yiy
yinbon
yet
yesufa
yen
yee
wọhò
wòn
wíjọ
wéwu
wàjà
woodworth
woiṣẹ
wiwọ
wind
widows
weekly
weah
wat
wam
wallen
vulgata
vote
volume
vit
visible
vic
ves
venus
vaudès
valeri
understanding
unaids
udo
tọọ
tọna
túṣu
tútu
túnmọ
túlé
tùnún
tùbà
tóy
tów
tórà
tóri
tójò
tófẹ
tóbí
títóbiló
títòògbé
títayọló
tírófímù
tíbí
témà
táìsàn
tàlénígba
tàlélẹ
tàlél
tutsi
turin
tunji
tum
tukiso
tris
transport
totobijulo
toshi
torípé
tona
tomi
tok
tl
tir
timo
thu
tewé
temitope
tek
tee
techelsberg
tasmania
tao
talélọ
talmud
tala
tal
takọ
tají
t'ọkọ
sọọbu
sọdọ
sẹpẹ
sẹhin
súr
sób
sòfò
sítúsì
sísán
sírò
sínsín
síméì
síjà
séraphine
sáńbálátì
sáá
sátanì
ság
sàlámì
sàf
syn
swiss
sus
sunny
sule
story
stepan
stanka
stanisław
stan
spiegel
speak
sowọ
sophia
sonu
song
soci
sn
sl
siw
sisẹ,
sistemu
siré
sirley
sime
sie
shim
sher
sheikh
shan
shackleton
sepo
senior
sem
seg
seda
sebi
seattle
scalia
sayeye
sasha
sanumi
sanda
samir
sali
saj
sagba
s'
rọp
rọkun
rọjú
rọ-ìbánisọ
rómi
ríì
ríntè
rìnl
rántíi
ráf
ràdò
ryszard
ruru
runi
run-
rudi
rub
rt
romu
rodrigo
robertson
rip
rim
rif
richmond
results:
rep
rem
religious
reh
records
rd
rau
rasheed
raoul
qui
pẹrẹwu
pékà
pèdè
páà
pás
párì
pánsá
pád
pàt
pàntí
punjabi
poz
poli
ple
peye,
petr
perm
percy
pelu,
pearson
pe,”
pataki,
paro
parkinson
papoda
paolo
pamela
page
padá
paapajulo
paapaajulọ
oṣú
ońdè
otunba
otu
osule
orík
orisi
orinkórin
oriki,
organisation
opoku
oníyàrá
oníwòsàn
oníwo
onísọ
onírúiyepúpọ
onímàgòmágó
onígbè
oníg
only
oniṣe
oniru
onilé
onigbonwo
onibẹmbẹ
olúwọlé
olúw
olúgbọ
olúgb
olùsàsọté
olùrélànàkọjá
olùjàn
olùdá
olóhun
ológójì
ológìnní
olupẹjọ
oloyelogun
olote,
olokiki
olivia
olera
oksana
oke-
ojúkojú
ojo-
ohùn-un
ohunk
ogúnjó
ogunye:
ogunye,
ogunmilọrọ
official
offa
obasa
o.
nǹkán
nóbù
níì
níyàn
níwàkuwà
nísìnyí
níre
nír
nínú,
nínàákúnàá
nílée
níhín
nídàá
níbọn
níbe
nán
nà-
nuwo
ntàn
novo,
nla,
nl
nju
nile-igbimo
nichols
nibe,
ni-
ngọ
ngb
ngan
neg
nebraska
nc
nasarawa,
naka
naijiria(
nadine
n-tàbúrò
mọṣẹ
mọnú
mọnran
mọkanlelogun
mọj
mọge
mọgaji
mọdá
mọbíbí
mẹtadinlọgbọn
mẹrindinlaadọ
mól
mír
mímì
mík
mìlímítà
méè
ménáhémù
mél
mátan
más
mákí
máhálálélì
màa
musiliu
muse
mokanlelogun
mokandinlogun
mok
moi
mm
mita
minister
millard
mile
mildred
mil
michal
merindinlogbon
mercy
menu
melody
melissa
mejilelogoji
mejidinlaadọta
mefa,
mbọ
maá
mauritius
matsepang
maruwa
mars
manaus
mamu
malin
makrónisos
mahmoud
mahama
mago
mag
made
mada
lọt
lọja
lùgbàdì
lótìítọ
lójúde
lòjò
lírí
líbíà
léwé
lépo
lékèélékèé
lèk
láṣejù
láṣ
láń
láìyẹhùn
láìp
láìgbó
láyé,31
láy
láwàní
lárààárò
lára,
láp
lákókò
lákìíyèsí
lábàrá
làṣẹ
lyme
lul
losi
loro
look
lológun
lolobo
lokun
loju,
lojo-aiku
lod
ln
lilọ
light
león
lex
levi
lenin
lei
leg
leegun
layika
laurie
lauren
laruge
larson
lak
lahore
laf
ladó
lade
l'ó
kọkànlá,
kọk
kọdọrọ
kọbiara
kẹtalelogun,
kẹtala
kẹtadinlogun
kẹrosíìnì
kẹrinla,
kùú
kóńdó
kówá
kón
kókósè
kób
kòr
kírí
kípẹ
kílẹ
kíkúná
kèrègbè
káí
kááṣá
kálídéà
kábíèsí
kànòjọ
kuu
kuria
krómósómù
kou
kot
koránkorán
kore
kor
kop
kolo
kollington:
koko,
kogbogun
kloe
kk
kis
kiri,
kiiṣe
ketalelogun
kenyatta
kent
kekeke
kejì,
kawu
karina
kadara
jẹk
júlíó
jóáṣì
jíjù
jìgá
jéh
jédútúnì
jèhóákínì
jás
jáh
juwe
jorge
joke
johns
johanna
jijo
jigbe
jezreel
jesuit
jensen
jed
janina
jain
iṣuna-owo
iṣu,
iyé
iyànníyàn
iyebiye
iyato
iwo-oorun
iwe-
iwaadi
iwa-ibaje
itewogba
itankalẹ
isẹju
isi
isegun,
irọrun
irẹ
irún
irin-ajo
ipo,
ipinle,
ipapoda
ipad
into
interpreter’s
inger
indo
india,
imọlẹ
imuse
iléyá
ilé-ìwòsàn
ilé-ì
ilopo
ileẹkọ
ileife
ila-
ikọni
ikà
ikunsinu,
ikor
ijobawakala
ijebuode
igẹ
igè
igbohunsafẹfẹ
igbinmo
igbelewọn
igbaniwọle
iforo
iehova
idupẹ
idariji
ich
ibusun
ibrahim,
ibom,
ibití
ibasepọ
ibas
hébérì
hásórì
hárímù
hág
hydrogen
hutu
hunt
hundred
hui
hugo
hua
hippocrates
hes
hermine
herman
herm
help
heinrich
hauwa
hamunyari
hadadésérì
hab
gẹẹsi,
góngó
gómínà
gírísì
gììrì
gédégédé
gáfúdò
gààrà
gàgaàrá
gusuu
gustavo
gregor
gol
glen
gill
gib
ges
gem
gbẹlè
gbón
gbók
gbígbéjà
gbígbéga
gbígbèjà
gbígbàgbó
gbégi
gbéborùn
gbé,
gbájúmọ
gbàùgbàù
gbàj
gbayo
gbar
gbangba-gbangba
gbami
gbag
gazette
gau
garr
garden
gadagba
gabriele
fọnmu
fọhu
fújà
fòtító
fífetísí
fìbùkún
fèyí
fáṣítì
fán
fàdúrà
fsars
frei
franklin
fox
foro
form
foreign
fleming
fish
firm
financial
feyin
fever
fel
federation
fayawọ
fashola
fakọ
fak
fair
fai
fabian
f'
ex
eto-
erekuṣu
enugu,
enc
emewa
elin
eler
eleka
eduard
echo
ebina
ebenezer
easter
e-
dómùkè
díré
dídájú
díd
dìṣòro
dégbèje
dèdèrè
dáwa
dátanì
dáríji
dára,
dánrin
dál
dágbó
dàbò
dàa
dz
dy
dura
drosnin
dorota
dori
division
didasile
denu
dei
dee
dean
davies
daruko
dariji
daradara,
dance
damas
dakota
dajo
dae-il
daba
daada,
da,
cri
cre
courtesy
cotonou
cos
cooper
cooke
constituency
cons
comme
comedy
cj
chronicle
choong
choi
chechnya
charalambos
chap
channels
cent
cel
ccprcd
campbell
campaign
camarillo
cali
caleb
caf,
bọmọ
bùnmi
bóy
bók
bójúmu
bíbo
bíbani
bélà
béhémótì
báǹkì
báál
báun
báb
bàálù
bàyéjé
bàbá-
bv
burrus
bud
britani
bret
brandon
brain
botilẹ
bolaji
bohemia
bmi
blogger
blo
ble
blasio
biu
bishop
bird
billion)
bill,
bili
bie
bia
betoko
beru
berleburg
berg
bell
beecher
beautiful
baxter
bau
battle
batavia
banchetti
baluu
baker
bah
bacteria
aṣò
aṣèy
aṣiṣe
aṣa,
ańdérù
ayo,
aye,
aus
atúnnáṣe
atunwa
atimole
asòfin
aseyege
asemase
asaoro
arìnrìnàjò
arr
arnold
argentina,
arewa
arena
arar
ara-ilu,
ara-
apọ
apm
apako
anyàn
anuoluwapọ
ano
amusẹya
amusagbara
amojú
alè
aláìlófin
aláìlábàwọ
aláá
aláya
alásẹ
aláròjinlè
alárèékérekè
alálò
alágb
altay
alexakin
aleksey
aleebu
alausa
alakalẹ
alainile
alaini
alaf
akẹẹkọ
akpan
akisa
akinr
akapo
ajẹm
ajónirun
ajogun
ajayi,
aimoye
agriculture
agbóhùnsáfẹ
agbègbèe
agbà
agbofinro,
agbeye
agbepo
agbelarugẹ
afọbajẹ
afunrasi
afiwe
afehonu
adífá
adí
adér
adékúnlé
adv
adel
addo
adara
achebe
aca
abú
abísọ,
abáni
abr
abiamọ
abarapa
abameta(saturday),
aami
aaju
aadoje
750
7.
4956
483
260
256
2370
22,000
2019.
1999,25
197
1886
173
132
131
11,
1,100
1,
-oò
-opó,23
-m
-jiti
-funmi
-f
,lati
,18
(to
(re
(lagos
(198
'k
'awọn
''b
""e
""bi
##:00
##84
##52
##40
##200
##2)
##100
##0,
##.n
##.i
##.a
##-ọkọ
##-àti-
##-y
##-tẹ
##-rẹ
##-n
##-mo
##-le-
##-jin
##-ilé
##-gbà
##-fẹ
##-er
##-el
##-aj
##-agba
##-2
##,lo
##,e
##,8
##,6
##,500
##,20
##,0
##)a
##(b
##',
##",2
##”b
##‘
##ọt
##ọr
##ọgọ
##ọde
##ẹẹrẹ
##ẹy
##ẹrí
##ẹri
##ẹjọ
##ẹb
##ṣir
##ʼ
##ǹl
##ǹgbè
##š
##ńṣẹ
##ńk
##ńgb
##ī
##úélì
##úy
##úwe
##úta
##úrù
##úpa
##úbù
##ùwà
##ùn-ún
##ùlù
##ùk
##óó
##órọ
##ógb
##ñ
##íó
##ító
##író
##ípò
##ílé
##íkò
##íkà
##ìrà
##ìní
##ìnd
##ìi
##ìdì
##ël
##éù
##éèrè
##éà
##éw
##ésé
##érè
##èèjì
##èsí
##èrò
##èré
##ènì
##ènà
##ègb
##èg
##èd
##è-
##áń
##ásù
##ári
##áh
##ágb
##àṣẹ
##àṣ
##àánú
##àwò
##àsì
##àpá
##àkà
##zig
##zie
##yẹwo
##yẹl
##yípo
##yw
##yun
##yoruban
##yoo
##yon
##yna
##yle
##yb
##ya,
##wín
##wàá
##wun
##worth
##work
##wad
##vis
##vic
##veni
##ute
##urú
##urs
##unw
##unt
##unj
##ugb
##ug
##ubú
##ual
##tẹru
##tum
##toro
##tori
##tile
##tie
##thy
##teri
##tap
##sò
##síwájú
##sus
##stic
##stan
##sr
##sla
##sl
##sf
##sek
##sanya
##rẹrẹ
##rónì
##ríṣ
##rìí
##ránṣé
##ruk
##rth
##rse
##rot
##rmo
##rika
##ri,
##rf
##ress
##reg
##rda
##rar
##rae
##rac
##ra,
##r,
##pupa
##polis
##pere
##pelu
##ped
##pal
##pak
##pade
##oyo
##ove
##ots
##ost
##orm
##onu
##onne
##onia
##olú
##ola,
##oka
##oj
##ock
##níyà
##ním
##nés
##nuk
##nlo
##nj
##nimo
##nger
##nge
##nese
##ndu
##nas
##nam
##n-k
##n),
##mọk
##mín
##mímọ
##mím
##már
##mont
##mol
##mod
##mission
##mik
##marè
##lógún
##lén
##lémẹ
##léló
##lél
##lán
##làyé
##los
##loju
##leo
##lene
##lea
##laj
##lac
##laa
##kís
##kér
##kámù
##kov
##kos
##koko
##kins
##kg
##kere
##kay
##kari
##kan-
##kab
##kaa
##juw
##jok
##jini
##jim
##je,
##ià
##iwo
##iwe
##iru
##irat
##ipa
##iny
##insk
##inrin
##inmi
##ington
##inga
##iló
##ilu
##ijin
##ifi
##ifa
##ical
##ial
##his
##hd
##hall
##gírí
##gudu
##gt
##gr
##goo
##gon
##gno
##giri
##ggi
##gge
##ges
##gbù
##gbì
##gbéy
##gbádá
##gas
##fort
##form
##fon
##fie
##fia
##far
##eus
##erin
##eny
##enu
##elu
##ehi
##e)
##dóg
##dz
##dura
##dota
##dl
##dec
##dal
##cl
##cki
##chin
##cat
##cast
##cas
##cam
##búl
##bér
##bán
##bola
##bode
##blog
##bla
##bib
##bau
##bag
##ba,
##aza
##arà
##aní
##ange
##ander
##anda
##amù
##amp
##alè
##akọ
##ake
”“i
”b
“t
“leyin
“ise
“ij
“gb
“erongba
“ajo
‘n
ọshinbọtẹ
ọrs
ọmọniyì
ọmọlójú
ọmọlanke
ọmọlangidi
ọmọkó
ọlọgbọndiyan
ọlọfinsawo
ọlájubù
ọk
ọgọọgọ
ọdùn
ọbọ
ọbàlùfọ
ọb
ẹṣeun
ẹsùn
ẹnìk
ẹnikeji
ẹlẹwọn
ẹlomii
ẹj
ẹi
ẹgbẹ,
ẹgbàájì
ẹe
ṣẹṣẹ\\tun
ṣẹgun
ṣúṣà
ṣóṣóró
ṣòk
ṣíṣòwò
ṣíṣèbè
ṣíṣàìjé
ṣíṣàjọpín
ṣíṣayẹyẹ
ṣíná
ṣéríṣésì
ṣél
ṣèdánwò
ṣèd
ṣálú
ṣàìmọ
ṣàìgb
ṣàtúnkó
ṣàd
ṣàbòsí
ṣoyún
ṣowó
ṣowo
ṣosíọ
ṣokoléètì
ṣide
ṣer
ṣep
ṣenakérúbù
ṣel
ṣegbe
ṣeeṣi
ṣebi
ṣalágbàwí
ṣagbatẹru
ṣab
š
ńtọ
ńtúrì
ńtíné
ńrọ
ńre
ńm
ńjé
ńd
úsì
óunjẹ
ót
ór
óf
òṣe
òó
òwòrò
òsùnwọ
òròmọ
òjìlélẹ
òjìlélé
ògú
ògò
ògbójú-ọdẹ
òfú
òbíi
ísímáélì
ínú
ím
íl
ígb
ìṣògo
ìyípoyípo
ìyàrá
ìyànsípò
ìyànjẹ
ìwífún
ìw
ìtándòwe
ìtakò
ìsọmọlórúkọ
ìsọdá
ìsù
ìsáǹsá
ìso
ìsinsìnyìí
ìrèlè
ìráńṣẹ
ìráàkì
ìránsẹ
ìruké
ìpéye
ìpátá
ìpin
ìp
ìlòdìsí
ìle
ìl
ìkú
ìko
ìjóná
ìjójúlówó
ìjìjàgbara
ìgbàjá
ìgbà-
ìgbohùnsílẹ
ìgbe
ìfúnítumọ
ìfòr
ìfìyàjẹ
ìfìwé
ìfààyègbà
ìfiniló
ìfarakanra
ìdámárùn
ìdàró
ìdànrè:
ìdàgbà
ìdojú
ìbáṣepò
érì
élíákímù
élá
égílónì
éfúrónì
èèr
èèkù
èkí
èku
ède
èbù
èbìrà
áṣítórétì
áṣíké
áṣáríyà
áṣ
áíjálónì
áw
ásù
áróérì
ápákíṣádì
áná
álíf
álí
ákís
ágúrì
ábídónì
ábíd
àṣàkẹ
àṣeyege
àṣenajú
àṣej
àǹjànnú
àìríjẹ
àìro
àìníye
àìlès
àìláb
àìjẹunre
àìjẹun
ààrẹ,
ààre
àtíòro
àtàl
àtiló
àtijogún
àtigbádùn
àtidáàbò
àte
àtam
àsọrégèé
àsìá
àsepọ
àríyá",7
àràmàndà
àràbarà
àpóti
àpeere
àlù
àlàbí
àkọtọ
àkọkọ
àkàlàmàgbò
àko
àjọsọ
àjàl
àgẹ
àgbàt
àgbayé
àfòyeṣe
àfipawó
àdì
}
zion
zin
zha
yẹwo
yíyàgò
yí,15
yéè
yémiítàn
yáà
yusuf,
ypp
yorúbà
yoruba.
yorkshire
yomi
yola
yoko
yeo
yemen
yar
yanilẹnu
yak
yaa
xyʹlon
wọọ
wọnsẹ
wọn,16
wọjà
wótòwótò
wòsì
wò,
wíwárìrì
wér
wédìran
wábá
wàyó
wy
wwọ
wura
woy
wolii,
wod
wissam
winthrop
winston
wilhelm
wilder
wid
wewe
week
wbbr
wani
waka
w16.0
virgil
ville
vie
vicente
vanuatu
valida
vale
uzo
uyo
usúàkò
uran
t’a
tọkọtìyàwó
tọjú
tọ,
tẹnì
túnlé
tùṣẹ
tóní
tóni
tóbíyà
tòó
tòjò
tíṣírì
títóótun
títu
títojúbọ
tíbésì
tìlú
tìgb
tìfẹ
tìb
tékóà
tèlé
tááṣì
tát
tárùn
tàná
tànmọ
tàkùrọ
tàgbàtèwe
typhoon
twentieth
twe
turku
tunisia,
tt
truth
toulouse
tou
toru
tornadoes
toom
tomijé
tolu
tiẹ,
tikẹti
tijani
tig
tid
three
text
test
terry
tatyana
tapá
tanboríìnì
tammy
tah
tabí
tabili,
taagun
sọju
sọd
sẹkẹ
sẹjárí
sẹ,
súl
sóò
sóyà
sórin
síyè
sít
sípé
síní
sím
sílifá
síf
sìnm
ség
sárépẹgbẹ
sáfánì
sàlómè
sàkíyèsí
sàdédé
sv
susanne
super-eagles
sung
sunder
sumatra
sue
sudan,
strike
stri
strat
stevens
step
steele
staurosʹ
spain,
soworẹ
sowopo
souza
solómónì
solarin
sodi
sobhuza
sms
sleep
sk
sina
sikh
sik
sib
should
short
shittu,
sheu
shen
shakespeare
shah
setọju
serie
serengeti
sebí
seb
sean
scientists
schneider
saye
saulo
sarri
sari
salzburg
sally
salamot
sako
sajo
sagb
saga
saf
sadiq
sack
sabrina
rọsẹ
rọbi,
rọba
rọ-ala
rún-
rùba
róg
ríretí
ríndínlógún
rìnínwá
rìnín
rìndínláàdọ
rìnd
rárá!,31
ránm
rànwú
ràn-an
ràgà
rylands
roth
rota
romana
roland
rodo
rochas
river,
ris
rinrinajo
rina
riga
riet
richter
rhode
rey
renato
refugees
reformed
ree,
rebekka
rawo
rapa
ramoti
rakel
rah
rac
raa
questions
pẹẹrẹ
pòkíì
píparí
pínṣé
pélégì
pé:
pèsìjẹ
páni
pàṣ
pàǹtí
pàwọ
purotéènì
punta
príncipe
prêto
propaganda
progr
professor
prof
princip
pres
polycarp
polio
play
planet
pir
petrona
person
pelebe
pavel
pauline
pad
oṣogbo
oókan-àyà
oyíndayépọ
oyèbádé
oyinbo,
oxygen
owoeyo
owo-
ow
osuitanatehinwa
ost
oshoala:
orú
orùn
orísìí
orire
oorùn
oorun,
oníwá
onípanṣágà
onínúfùfù
oníkọ
oníh
onífọkànsìn
oníbẹ
oníbú
onyema
ony
onip
onil
omọ
omoniyan,
omokunrin
omoba
omeruo
olόwό-ìbínú
olúbori
olùyọjúràn
olùwòran
olùpolongo
olùp
olùbá
olóṣ
olótìítọ
olós
oly
oluọmọ
oluwaṣeyi
oluto
olup
oluf
oloriegbe
oleg
olatoye
olamilekan
olamide
okorocha
okoo
ojúk
ojú-
ojàre
ojumọ
ojugba
ohanepo
ogunṣẹyẹ:
ogunyẹmi
ogorin
ogbomọṣọ
oduntuntun
odo,
ochieng
obìnrín
oaxaca
nṣẹ
nípínlẹ
nín
nílù
nílòo
níhín-ín
níh
nígbàgbogbo
nígb
nìk
nétan
néfì
náfítanì
nyawade
nwok
number
nubia
nrìogbé
npar
nowiki
novo
novi
nná
nni,
nmu
nlérúgba
nkò
nkan.
njc
nja
niy
niwe
nitr
nipon
nilee
nikos
nijer
nija
nij
nigeriaat
nig
nia
ngu
newcastle
nevi
need
nbí
nav
nass
nas
nao
nai
n4
n3
mọṣ
mọwọ
mẹtẹẹta
mẹtalelọgọrin
mẹni
mẹdẹ
mún
múdé
mók
mòn
méri
mén
mémúfísì
mélòókan
méjíléló
méjèéjì
méjèèjìlá
méjèjì
méjè
máṣ
máńgòrò
márùndínláàádóje
mán
málà
mákábì
màálù
màrìwò
mystery
munadoko
muj
muir
mud
moṣ
mountains
mothers
morocco,
moro
morgan
mop
moni
mombasa
moldavia
mohandas
minu
milioni
mik
mig
micro
mic
miami
mi.
merindinlogoji
melatonin
meji(
mej
med
mea
mck
mcca
mbuhari
mban
maxwell
maximus
masorete
mariví
mapo
malay
malagasy
majẹ
majele
maje
mainz
madu
madam
l’o
lό
lọn
lọla
lọhun
lẹr
lẹmọ
lẹgbé
lúsíférì
lúd
lù,26
lóókọlóókọ
lóni
lókèrè
lójúmọ
lójú,1
lóju
lódodo
lílúwè
líbínà
lét
léso
lélógún
lékíónì
lék
lètò
láíyé
láìṣẹ
láìtiè
láìsi
láìl
láìjẹni
láìdéènà
látọ
látòní
lárayá
lákè
lákà
lágbàyé,24
ládu
ládojúdé
lábala
làp
làk
luhansk
loṣooṣu
lotun
lot
losoosu
loriṣiriṣi
lorii
lord
lookan
lomo
lojo-aje
loja
lohùn
logos
log
link
lingala
lily
liberation
lgbt
leve
leri
lepa
lele
lekun
lejo
leeyan
leb
leader
laye,
lay
lau
lateyin
laro
lari
lapland
lapere
lama
lais
lagboole
laawo
laaka
laabi
l'ágbàáyé,27
l'agbaye,
kọwọ
kọkandinlogun
kọkan
kẹtàdínlógún,
kẹtala,
kẹrìn
kẹn
kúnù
kúnwọ
kúkò
kù,23
kóy
kówa
kór
kóló
kòní
kòl
kòkárí
kípírù
kínín
kín-ín-ní
kílé
kìrìstẹ
kìnìhún
kérétì
kéji
kégbe
káṣ
káá
káàk
káyọ
káró
kákiri
kák
kábàámọ
kàmì
kyaw
kwankwaso
kumọ
kseniya
ks
kri
kow
kopa,
komi
kolade
kok
kl
kirch
kindinrin
kind
kiev
kidnapping:
khali
ketadinlogbon
kerin,
kelechi
kebe
kayla
kathmandu
kana
kagame
kadi
jọọ
jọkẹ
jọ,
jẹran
jẹgbé
júpítà
júlọ
jùkan
jóà
jóg
jím
jíjẹun
jíjowú
jíg
jìmí
jés
jéhíélì
jáírì
jásónì
jánú
jánganjàngan
jágbajàgba
jàǹ
jàńtìrẹrẹ
junior
julio
judge
jub
joògùn
josi
joseba
jorí
johesu
jigawa,
jennings
jenner
jegbadun
jega
jedáláyà
jeanette
jawọ
janny
jannat
jaime
jade.
j.
iṣẹ,
iṣiro
ișẹ
iyá-ọkọ
iyewa
iwọs
iwulo
iwoyi
iwo-orun
iwas
iti
itele
itak
isembaye
irùngbọ
irù
irole
irkutsk
irawọ
irapada
iranṣọ
iraida
ipọ
ipate
instagram,
imoore
imn
imam
ilọpo
iléẹ
ilééṣẹ
illustrations
ill
ila-oorun
ikúu
ikedun
iju
ijegun
iheanacho
igbésẹ
igbohun
ifẹsẹ
ifura
iforukosile
iforuko
ifipa
ifidirẹmi
ie
idájọ
idu
idanilẹkọ
idanilo
icc
ibujoko
hòté
hìndé
hìnbọ
hésírónì
hér
hén
hégáì
hébà
háṣ
hásá
hás
hám
hussein
hum
hulẹhulẹ
hugh
hubble
houʹtos
hop
hood
hoo
hindi
hib
henryk
helena
haykaz
hate
harald
hand
hame
hal
hakeem
hajia
gọntíọ
gúó
gíro
gídá
gés
gédì
géb
gáálì
gá-ògo
gàù,
gypsy
guyana
gusu,
gum
guinea,
gudu-gudu
guadalupe
grass
goe
goals
glenn
gio
gin
gilére
giga,
gian
germain
georges
genival
gee
gc
gbọnrangandan
gbẹjọ
gbójúlé
gbígbájúmó
gbár
gbálé
gbáj
gbàgb
gbàd
gbuurugbu
gboo
gbogunti
gbogbowa
gbogbogbòò
gbigb
gbeni
gbaramu
gbamu
gbajú
gba.
gavin
gari
gamma
gambari
fọnmú
fọkan
fẹtọ
fẹ,
fóṣ
fínífíní
fífọgbó
fífẹnu
fífìyàjẹ
fífìdímúlè
fífárùngbò
fífini
fìtìjú
fìmọ
fìkánjú
fìgbésí
fèèyàn
fárí
fàs
fulham
francesc
fotouh
fotostock
ford
footballers:
fojúunú
focus
fla
fire:
finished
fingers
fikùnlukùn
fight
ffi
festac
fee
fatima
fash
fanfa
faki
fagb
f'o
eṣi
eṣ
eéwo
eéfà
ewo
evan
eti(friday)
etebo
esentaye
erémọdé
eréko
eredi
epikúréì
enítọ
entebbe
ent
engineering
emu
eléèbó
elégbè
elt
eleke
elegbe
ekejì
egb
edna
edi
ebu
ebonyi
eagle
dẹrin
dùnkún
dùgbè
dótánì
dókòwò
díà
díwọ
dípẹtà
dídájó
dídojú
déébè
dégbò
dáhò
dágunró
dágb
dá-
dàm
dàgbàlagbà
dum
dre
dra
doríkodò
dor
donna
donmonron
dog
div
disc
dios
dijọ
diamond
detlef
demilade
def
debbie
dc
daro
dali
dakẹ
currency
cur
cultural
crusoe
cru
croesus
could
constantine
computer
commander
colo
cody
cline
clayton
clay
claudiah
christa
chit
chim
chike
chic
cher
centre,
cathy
cas
carri
carly
cad
c.
bọwọlu
bọlẹ
bọlé
bọjọ
bẹtisáídà
bẹ,
búrurú
bùr
bóhun
bíṣé
bíríkìlà
bímú
bíbà
bìní
béér
bétúélì
báyìí,
bám
byzantine
burundi,
bull
buburú
bs
brt
brotherhood
bronx
broadcasting
brisbane
bridgeman
brenda
breeam
breaux
braille
boys
botile
booth
bonn
bomirin
bobby
bloggerkiniyorubase
bipolar
binrin
bike:
beverly
beth
best
berta
beji
beeli
beduhn
baw
basọrun
basu-basu
basil
basi
bardet
banujẹ
bangui
bam
balu
baja
babs
baagi
aṣeni
aṣaaju
aà
ayírapadà
ayíbírí
ayé-
ayokunle
ayefẹlẹ
awóyalé
awínni
awé
awok
awifuni
awaziem
avi
audu
aubrey
atóófaratì
atupalẹ
attahiru
asínwín
asá
astronomical
assa
ass
asp
asoebi
ashe
asc
asan
asaba,
arom
archives
aramaic
aquinas
apárí
apà
apply
apollo
andy
amúnironújinlè
amúgbálé
amuyangan
amuludun
ambo
amara
aláìṣeéṣínípò
aláìnítè
aláìlọ
aláìl
aláìb
aláyọ
aláyé
aláyà
alálẹ
alákíkanjú
alákìíyèsí
alájẹ
alájàpá
aláfò
aládàádúró
alábùkù
alábàágbéyàrá
alumọọni
altiplano
aloku
alis
alimi
aliko
aleksandr
alc
alberto
alayeluwa
alatilekun
alamoju
alagbata
alaanu
alaaafia
akúrẹ
akúnfé
akù
akéré
akoroyin,
akintọla
akindele
akero
akara
akanlo
aiteo
ailera
aidaa
agégẹdú
agboke
agbate
agbarijọpọ
agada
agab
afèrìgìpè
adéláyò
adéb
adolph
adie
adeyanju
adeso
ades
adeniyi
adebi
addo:
adanu
adani
acn
accord
abdulsalami
abdullayev
abanijé
abani
aaro
aareonakakanfo
aadọrun
aadọrin
a-f
a-d
@o
969
70,000
7,500
568
520
515
380
332
3-0
218
210
2030
2010,
2006,
2,300
2,3
187
1865
1844
178
1209
120,000
1,900
05
-ìránṣẹ
-àtẹ
-s
-olókùnrùn
-nípa-ẹyẹ
-muhammadu
-joseph
-ise
-ilé
-hameen,25
-falua,2
-d
-ayé
-awa
-abike
,”
,k
,all
,23
,15
),
(w
(v
(un
(ne
(na
(irt)
(f
(ca
(ap
(an
(am
(al
(8
(7
(6
(5
'ẹ
's
''l
''e
#soarsupereagles
#b
#450,
"saheed
"i
",1
""kii
""aina
##:45
##89
##85
##75
##74
##72
##6-
##55
##48
##46
##43
##41
##400
##36
##07
##.o
##.com
##-ọr
##-ẹni-
##-ìgb
##-àgbà
##-wọ
##-ra
##-pẹ
##-ori
##-n-
##-kò
##-igb
##-id
##-díd
##-co
##-bir
##-ayé
##-4
##):
##(s
##'l
##!”
##“mo
##ọlu
##ọle
##ọb
##ẹṣ
##ẹsi
##ẹj
##ṣérì
##ṣánì
##ṣoṣo
##ṣiṣé
##ṣepọ
##о
##в
##ńr
##ń-
##úù
##ús
##úré
##únì
##úbá
##ùy
##ùw
##ùt
##ùnk
##ùbá
##óòr
##ótí
##ólé
##ójọ
##óbù
##òji
##òdì
##íò
##íyì
##íy
##íní
##íle
##ídi
##íbí
##ìṣà
##ìṣ
##ìyá
##ìta
##ìnà
##ìnrìn
##ìjì
##ìbà
##ë
##ésí
##érú
##éné
##ébù
##éb
##èṣ
##èè
##èsì
##èlé
##ç
##ã
##áẹ
##áán
##áàádó
##áàdó
##áwó
##ánṣẹ
##ánà
##álí
##ákú
##áká
##ájá
##áfẹ
##àì
##àyà
##àrẹ
##àmù
##àlá
##àjà
##àdá
##·k
##yípadà
##yàwó
##yot
##yk
##yg
##year
##xo
##wn
##west
##was
##wal
##waju
##vs
##vr
##vest
##vat
##vas
##uṣ
##uyiwa
##uyi
##utu
##ust
##upu
##unu
##uns
##unrin
##ument
##ulẹ
##uis
##udo
##uce
##uc
##tẹlẹ
##túnṣe
##tánì
##tsi
##top
##too
##tm
##tland
##tions
##tio
##tine
##tim
##tik
##ters
##te,
##tch
##tate
##talks
##sínì
##sák
##sàá
##sola
##sib
##set
##see
##scri
##sburg
##say
##sat
##rúgb
##rís
##ráì
##ràg
##rts
##rti
##rna
##riz
##rind
##rian
##rey
##resi
##ray
##rant
##rab
##qu
##qi
##pìwàdà
##pur
##pool
##pic
##pha
##pet
##peration
##paj
##pag
##pa-
##oó
##oz
##owe
##owa
##ovi
##out
##otu
##osan
##orúkọ
##oore
##oon
##ont
##onal
##ome
##olù
##oll
##ojuto
##obu
##níá
##nírínwó
##nté
##nto
##nski
##nor
##nnà
##nno
##nkú
##nka
##niló
##nha
##ngbọ
##ngan
##news
##nea
##nberg
##mọn
##mọd
##múlẹ
##míràn
##mun
##mulẹ
##mr
##mpl
##mme
##ming
##mic
##mey
##mbe
##mak
##main
##m),
##lér
##lát
##lw
##lun
##lorun
##lod
##lman
##llah
##leri
##leni
##lay
##lari
##lant
##lad
##la,
##kẹrẹ
##kór
##kò-
##kít
##kín
##kíl
##kìtì
##kìn
##kám
##kwan
##kwa
##kt
##kore
##kiti
##khi
##kara
##kanl
##jọ,
##john
##jo,
##jay
##jani
##itr
##ition
##iria
##ipad
##iot
##iná
##inger
##inde
##ile-i
##ikọ
##ika
##iiri
##igbo
##ici
##hẹ
##hámù
##hya
##hs
##hom
##hine
##heed
##hea
##has
##hac
##gán
##gus
##graph
##gra
##gm
##gl
##gidi
##gd
##gbèé
##gbon
##gbinrin
##gbin
##gara
##gad
##g,
##fs
##fre
##fra
##fiq
##fid
##ffi
##fet
##fee
##fani
##evi
##ete
##es)
##ery
##erg
##eran
##eno
##emọ
##ely
##eir
##ebe
##dọla
##dínlọ
##dínlógójì
##délé
##dánì
##dri
##dom
##dle
##dinlog
##did
##dek
##deb
##de-
##dad
##da,
##ctor
##cop
##chukwu
##cd
##cc)
##báálì
##báy
##bára
##bám
##bus
##bui
##borg
##bok
##biri
##bat
##ava
##ator
##asa
##arun
##arawa
##anl
##ank
##anj
##ania
##an-
##ament
##alo
##alit
##air
##agbe
##afo
”“a
”al
“s
“p
“ok
“má
“lai
“j
“ile-ise
“iko
“bakan
’’a
‘s
‘k
–ejo
ọtí-wáìnì
ọsán
ọran
ọr
ọmọbirin
ọlọdun
ọláníran
ọlábímtán
ọkán
ọkanjua
ọjọọjó
ọjọgbọ
ọjà,
ọdọlangba
ọdún,6
ọbabinrin
ọba-
ẹtẹ
ẹtù
ẹrí
ẹranmi
ẹrank
ẹp
ẹnikọọkan
ẹlẹyamẹya
ẹlẹwa
ẹlẹda
ẹko
ẹgẹ
ẹgbẹta
ẹgbàámẹ
ẹgbàá-
ẹgbàata
ẹfúnṣetán
ẹ,
ṣọọsi
ṣọpẹ
ṣúá
ṣíọ
ṣíṣekókó
ṣíkò
ṣíh
ṣìkẹ
ṣén
ṣémáyà
ṣémà
ṣélé
ṣéfá
ṣèṣirò
ṣèy
ṣèsìn
ṣáírúsì
ṣásù
ṣàìṣe
ṣàìb
ṣàtún
ṣàt
ṣàpó
ṣàgbéyẹ
ṣàfé
ṣàfojúdi
ṣugbon
ṣs
ṣoúnjẹ
ṣomi
ṣok
ṣojúkòkòrò
ṣis
ṣe-
ṣatunṣe
ṣap
ṣal
ṣakawe
ṣad
ḿbà
ǹdì
ǹb
ş
ńya
ńwí
ńw
ńlo
óní
óg
òǹrorò
òǹka
òǹdó,
òwé
òun,11
òsù
òsi
òronsẹn
ònkọ
òmùwè
òkèàgbè
òj
ògúnná
òdò
òdeòní
íṣíbóṣétì
ímérì
ídúmíà
íbí
ìṣík
ìṣek
ìyáńlá
ìyàwó-ọmọ
ìyàwòrán
ìyànníyàn
ìwí
ìwér
ìwákiri
ìwàl
ìtẹr
ìtúnríran
ìtún
ìtutù
ìtilẹ
ìsọmọ
ìsòr
ìsìnà
ìrònújinlẹ
ìròb
ìrìnk
ìrèmọ
ìranṣẹ
ìpínl
ìpèdè
ìpáyà
ìpàgó
ìnasè
ìmúkúrò
ìmá
ìlùkìkì
ìléra
ìkẹrìndínlógún
ìkóórè
ìkówó
ìkóná
ìkójọpọ
ìkójọ
ìkòyí
ìkékúrò
ìkár
ìkejìlélógún
ìkejìdínláàádó
ìjẹta
ìgun
ìgbógun
ìgbéni
ìgbékèéyíde
ìgbèsẹ
ìgbàr
ìgbàlejò
ìgbàd
ìgbà,
ìfọp
ìfọn
ìfẹyinti
ìfàló
ìforúkọsílẹ
ìfor
ìfitónilétí
ìfisọrí
ìfis
ìfijoyè
ìfidánrawò
ìfagagbága
ìf
ìdáàbò
ìdáméjì
ìdákọ
ìbò,2
ìbò,11
ìbò,
ìbì
ìbáṣepé
ésítà
éfíráímù
éd
ébálì
èèyàn-án
èèmọ
èyà
èyun
èy
èp
èni
èkọ
èh
ègè
èdì
èdèkòyedè
áṣír
áṣídódì
áy
ásékà
ás
áránì
árábù
ápíà
áló
ákádì
ág
áf
ábíésérì
àṣìtẹ
àṣálé
àṣàa
àṣey
àṣetì
àṣerégèé
àṣegb
àṣ
àǹ
àíb
àí
àìṣà
àìṣojúsàájú
àìṣ
àìyẹsè
àìsinmi
àìnáání
àìmoye
àìmoore
àìlá
àìjámó
àìgba
àìfọkàn
àìfẹ
àìdádò
àìbójúmu
ààrín
ààlọ
àyídà
àwọn,
àwùjọ-ẹ
àwòràn
àtọdúnmó
àtúntẹ
àtòrì
àtòkè
àtèèyàn
àtubọ
àtilé
àtika
àsọparí
àsí
àsomọ
àso
àrín
àrànmúpè
ànà
àlúfáà
àlì
àlàbá
àkọó
àkẹ
àkàṣù
àkàn
àjẹt
àjínde
àjídèwe
àjàpá,
àjàn
àgùnbánirọ
àgbér
àgbélè
àgbán
àgbál
àgbàlàn
àfẹsè
àfòpiná
àfí
àfèmi
àfànítè
àfara
àdògán
àdàmọ
àbò,10
àb
à-r
zlp,
zimbabwe,
zer
zar
yọra
yẹẹ
yíyanilé
yèrèpè
yèbó
yáni
yàmẹ
yuri
ype
yinniyinni
yii;
yeye
yes
yelena
yanu
yam
wọọdu
wọnyìí
wólé
wíwọṣọ
wéwé
wáí
wáàsù
wád
wá',7
www.
worth
woods
wojciech
wish
wiesbaden
wellington
wedding:
waw
walker
wai
wahab
wab
w17.0
w1
vu
vis
virus:
violet
vig
view
video
ven
veja
valentine
uz
uwe
urhobo
uni
ung
unf
une
ulf
udi
uch
uc
tọr
tọpa
tẹwọgba
tẹk
tẹdo
tútú
tùn-ún
tótọ
tòkè
títítí
títako
tírísà
tírà
tìyó
tìyá
tìta
tìkà
tìfun
táí
táp
táf
tàrà
tàb
twi
turner
turn
tulẹ
tshisekedi
tse
tripoli
top
tooro
tomat
toko
toka
tkelani
tiw
titẹ
titicaca
tiradentes
ting
tikara
those
thorn
third
tewo
tesiwaju,
territory
tern
ter
teenager
technical
teaching
tanimọ
tania
talérúgba
taliban
tafawa
tabánákù
tablet
tab
ta...
ta-mẹ
sọku
sọkan
sọk
sẹr
sẹl
súgà
sólómọ
sòbìà
síyọnu
sísílì
sír
símíónì
síj
sídà
sìyẹsà
sìlíṣíà
séra
sépo
sáyà
sáre
sálásí
ságbo
sàár
sàsọ
sàj
symington
surulere
sura
sun,
sulis
sui
stuttgart
studio
stre
sti
stewart
stackhouse
spo
spirit
speakafricaapps
space
soyinka,26
sov
southampton
soul
sona
soku
socinus
smi
sladjana
sisoro
siseto
sile-
siga
sicily
shum
show
shona
shil
sherry
shar
sewadii
seventh
seven
settlement
seré
sec
schu
schmidt
scha
sawyer
saw
saturn
sati
sao
sanusi
sandy
sand
sanai
san,
samura
sall
sakaráyà
saheed
sag
sade
sadankata
sacr
sab
rẹjú
rúnlá
rúf
ròhìn
ríà
rírúbọ
ríborìbo
rìnlénírínwó
rìnlél
rìndínl
réfáí
rèé,
ráns
ránnu
ryusuke
ruben
rubella
rosi
rosen
role
robi,
ro,
rit
rin(
right
ric
rewa
reu
rest
reserved
resc
rena
reims
regina
regi
references
reception
rebekah
read
raufaregbesola
rash
ranpe
rann
rafa
raaye
ra,
pórísì
pòò
pípéjọ
pípara
péréte
pèríà
páá
párá
pár
pálábá
pál
páká
pák
pàm
pàlà
pàj
pvc
put
pus
province
presidential
potassium
posadas
polyglot
poland,
pog
player
pla
pitimu
pipo
pier
photograph
petro
pet
perth
personal
perla
pepe
pensioners:
penn
penicillin
pawọ
pata-pata
pasito
paramó
pani,
pain
o’
oṣè
oṣiṣẹ,
oún
oùnjẹ
oòd
oyan
oy
owóo
owó-orí
ov
ouidah
otù
ottawa
otooto,
ote
ot
oso
oshiomhole,
orìṣà
oro-aje,
orl
oregon
ore-ọ
oran
ora
opọ
oputa
oodua,
oníṣàngó
oníṣ
oníyè
oníy
onítànṣán
onírò
onímó
oníkókó
oníkòyí
onígẹ
onígíláàsì
onígb
onídà
onì
onit
onijo
oni.
omo-agege
olúwòó
olúnládé
olúkúlu
olúk
olùta
olùpààrò
olùpàkókòmó
olùpolówó
olùmọ
olùdáǹdè
olùbọ
olóó
olóòrùn
olóríi
olórí-ogun
olódùmárè
olódòdó
olífì
olè,
oluyinka
olutoju
olus
oluran
olujimi
oluilu
olugb
oludamọran
oloruka
olopa
olooto
olokowo
olele
okòólérúgba
okodoro
oked
ojús
oju-o
oju-
ojoo
oil
oha
ogunlọlá
ogunleye
ogi
ofo
officer
obìnrin,
observer
obiageli
obey
obad
nọn
níṣuló
níy
nítumọ
nísíns
nísinsinyí
nírọ
nío
nínípìn
nílá
níkọ
nígbákùúgbà
níf
níbù
nìl
nìj
nìb
náhá
nàìjíríà,21
nànómità
nàgbé
nàa
nyọ
nwosu
nus
nurs
nuk
nui
nu-
ntúnwọ
nrìn
nord
noemi
nlc,
nké
niyì
niyawo
nitrogen
nitori,
niro
nipé
nileeṣẹ
nicosia
nicolas
nice
nicarao
nibucaa
nhùmò
nguy
ngrsenate
neráyà
neriglissar
nemchinova
nela
ndínlógún
ndlea
ncaa
natasha
naj
naij
nafdac
naa”
n2
n-i
mộ
mọọmọ
mọle
mọkandinl
mẹtalọkan
mẹtadinlọgọ
mẹtadinlogoji
mẹtadinlaadọ
músẹ
mú,
mórè
mítìnì
míní
mímọrírì
míkí
méré
méjílélógójì
méjídínláàdọ
méj
médíà
méd
mèsì
máó
máràrùn
málí
mágíné
mule,
mtn
mpútà
mou
mother
moron
morin
monterrey
monran
mono
mongolia
molo
model
mitchell
missionary
mish
milo
milky
mfm
meth
meta(
merengue
mercedes
meloo
mejidinlog
mei
mbá
maṣíìnì
maurizio
maureen
massimo
mass
masha
marvin
marseille
marneuli
marks
marine
manjola
mang
mand
mamo
malu
maima
maga
mack
macia
mabu
maas
l’agbaye
lọs
lọjà
lúsì
lúcia
lùgbẹ
lóṣ
lóòyè
lóòjọ
lóo
lófò
lòk
líkísì
léde
láú
láìsàn
láìlọ
láìkáàárè
láìgb
láìdásí
láàrọ
láàn
láyée
láwòjù
láw
lásiko
lálèébù
lák
lájọ
lájùlé
lààmì
lyon
lyman
luth
lusaka
lukuluku
ludovic
luci
louisiana
lorílè
lona,
lole
lojumọ
lojobo
loi
liv
liu
lionoudakis
liga
leukemia
leticia
leslie
leone,
leekan
lawujọ,
lawo
latẹ
lato
lask
lará
lap
lao
lalá
lalaye
laisko
laijẹ
lagbara,
laelae
labẹle
lab
l'é
l'agba
l'abuja,
kọọkan,
kọmputa
kọmisọnna
kọkanlelọgbọn,
kọkandinlogun,
kẹwaa,
kẹtàlélógójì
kẹtàdínlọ
kúń
kúlú
kóòṣì
kóre
kòmóòkun
kògbókògbó
kíámó
kítí
kírísítálì
kím
kílódé
kílò
kílíónì
kíkè
kíkápá
kíd
kéé
kére
kénán
kéná
kémóṣì
kém
kél
kéd
kèékèé
káńgárá
kánjúà
kám
kájọ
kád
kábá
kànńpá
kànkà
kyʹri·os
kyr
kyoto
kwan
kurd
kunna
kudiẹkudiẹ
kremlin
krak
kp
koz
koy
kootu
kokandinlogbon
kohei
koba
kn
kiribati
kila
khar
kfc
ketala
keresi
keon
kejidinlogbon
keep
kawọ
katy
katina
kashim
karundinlogun
karun,
karu
karin
kans
kanj
kamọ
kami
kala
kakiri
kabila
k'
jẹunre
jẹra
jẹm
jẹgudujẹra
jẹg
jẹbẹtẹ
jẹ-
jú,
jù,28
jínde
jíjàn
jíjà,17
jíjo
jìgbìnnì
jésí
jédá
jèhó
jáṣ
járédì
jár
jámínì
jáf
jàjàbó
judah
journey
joh
jogbo
jij
jew
jeun
jehofah
jebi
jayò
jaya
jawa
janus
jang
jakande
jaga
jacek
jab
iyọ,
iyà
iyapa
iyanse-lodi
iworan
iwalaaye
iwadiii
ivanov
iv
it’s
isí
isá
issa-onilu
isok
ise-
isajoba
ironsi
irepo
irena
iran,
ipòo
ipèsè
ipolowo
inú-
ináa
institut
inst
inl
inf
inaki
imuṣẹ
imus
immigration
iléè
ilé-ìkàwé
ilé-is
ilorin,
ilham
ilewọ
ileefowopamọ
ilee
ikọlura
ikọkọ
ikọkan
ikansiraẹni
ijiyà
ija,
ihinrere
igbáàyà
igbà,
igbi
igbani
igab
ifásitì
ifiga
ifarajin
idal
idajo,
idagbere
idagba
ibínú
ibori
ibn
ibi,
ibaje,
ibadọgba
hẹn
híméníó
hìnkùlé
héférì
háṣábí
hyde
hubert
honduras
hiroki
hiram
highl
hem
helicoide
hed
heb
ha’apai
hasmonean
harcourt,
hansen
halley
halle
hale
hajj
gúlegúle
gúgúrú
gùnfè
gógì
gígá
gìnnì
gìjà
gérà
géndé
gégùn-ún
gáà
gàásì
gàràgàrà
gwa
guzape
guterres
gust
gungun
guingamp
guayaquil
guard
grin
greenland
governor
gothic
goloto
gold:
gloucester
gizo
gist
ginny
gilé
gilbertese
georgi
geoffery
gdr
gbọn-in
gbọmọ
gbóhu
gbígbò
gbígbo
gbéṣè
gbékalẹ
gbébọn
gbámú
gbájugbajà
gbàà
gbàwo
gbàrọgùdù
gbàr
gbàk
gburo
gbu
gboyè,21
gbolẹ
gboju
gbogo
gbogboo
gbogbonse
gbigbona
gbigbe,
gbele
gbej
gbeg
gbawo
gbale
gbaj
gas
ganduje,
gan-
gallup
gai
gabrielle
fọọmu
fẹrù
fẹlifẹli
fúrúfúrú
fúrú
fúr
fùrọ
fóònú
fóò
fóhun
fírí
fílétó
fífá
fìṣó
fìkan
fìgb
fèrú
fás
fár
fál
fàk
fàbínú
friedrich
frances
fou
forum
forikori
foní
fontẹ
fm
flavia
flag
firi
file
fiji
ff
fernández
fenu
fen
fct,
fayette
favour:
fatma
fashọla
falana
fala
fal
fajúro
fah
fafa
fadeyi
ezekwesili,
expert
evi
eusebius
etisalatja
eth
erín
ero,
epe
enìyàn
enìkan
enì
enough
enikankan
enik
eng
energy
enelamah
empire
emeka
elòmíràn
eléégún
eléy
elomiran
elkana
eliákímù
elikánà
eleyameya
eko,28
eje
eileen
ehín
egbu
efinrin
edu
eck
ecclesiastical
dọgb
dùn,
dùgbẹ
dóólà
dís
dídíwò
dídáko
dídàá
dídààmú
débírì
débá
dápàá
dánìkan
dáju
dábẹ
dábírà
dàr
dw
dut
dus
dunkoko
duncan
dumbo
duke
duc
dub
dresden
drc
dos
dortmund
dod
doctrine
dm
digun
deutsche
detention
desi
desalegn
demo
demetrius
delhi
deg
dawson
dawa
dans
danladi
dalá
dak
daddy
dada
dad
cz
cyrillic
cyclone
cut
customs
cul
crisis
covington
cora
contributions
cont
conc
companion
commentary
coast,
coalition
club
clive
cli
claudius
claudiah:
cities
ciro
cin
cicada
christo
christiana
christi
cholesterol
chinua
cheryl
championship
chal
cf
centenary
celsus
cb
catrina
cathedral
catechism
cat
carter
cardiff
canberra
cami
camera
calgary
cai
cab
bộ
bọr
bẹtisátà
bẹntirol
búr
bùkọ
bówó
bólú
bód
bób
bíí
bíyẹn
bímọọre
bím
bíbomirin
bìlà
béórì
bés
békebèke
báàfù
bát
bák
bàálu
bàà
bàdágìrì
buruku,
bulgarian
budny
buba
bryan
brothers
brother
bright
brea
braz
br
boṣe
boxing
bougainville
botulin
bot
bomb
bogo
boeing
blossom
blessed
blainville
bla
biọdun
birmingham
bimo
billie
bikoṣe
bii:
bibọ
bh
beu
betting:
besini,
bertrand
bergen
beng
belg
belarus
because
beatriz
bc
bavaria
batani
bassey
barn
barca
barak
baltic
balewa
bakannaa
baf
badaru
bac
babylonia
babagana
aṣọdẹ
aṣáájú-ò
aṣááju
aṣayan
aàrẹ
azi
ayébáyé
ayara
awuye-wuye
awijare
awe
award
ava
aure
aura
aur
atí
atti
atlas
atipo
atipe
ataabọ
asáré
associated
assault
asoju-sofin,
asl
asiri
asian
asamọ
aron
arms
aral
apẹranjẹ
apology
apis
apej
apanilẹrin,
anọbi
anf
amún
amuṣẹya
amunidara
amp
amosa
amish
amer
amayederun,
aláṣ
aláìnísùúrù
aláìleèkú
aláìjẹ
aláìdáa
aláìbìkítà
aláté
aláruru
alápatà
alámu
aláko
alágbèékáa
alágbèrè,24
alág
aláfẹnuṣe
alábùkúnfún
alábà
alà
alt
alm
alefa,
albu
alawada
alati
alarina
alantakun
alalumọle
alajo
alagbato
alabẹ
alabahun
al-shabab
al-hameen
akọmọna
akónijọ
akinbiyi
akawe
ajíbóyè
ajuwe
ajibọla
ajeji
aje(monday)
ajax
ajanaku
ajakale
airlines
aibikita
agò
agígírì
aguntan
agodi
agidi
agbòjò
agbowó-òde
agbodegba
agbeyewo
agbelẹkọ
agbele
agbaọjẹ
agbaṣé
agbasese
agbase
agbal
afẹnifẹre,
afowogba
aforijin
afor
afoju
afipá
afghanistan
afghan
adó
adènà
adoni
adin
adeyeye
adeleye
adedeji
adape,
acpn
ace
abo,
abisọ,
abilékọ
abia,
abdulaziz
aayan
a-ṣ
@c
9,
800,000
530
4,200
325
306
219
213
209
1998,
1902
1871
1867
17,000
1611
1600
1536
1523
137
135,000
1,7
0-1
...,24
...
-ojú
-l
-ara
-ajé
,to
,g
,f
,1
(sd
(on
(go
(de
(ch
(15
(11-
'ọmọdé
'ọ
'ṣ
'ó
'wọn
'f
#t
#450,000
"nigeria
""ṣe
""ohun
""mi
""l
##\u
##;a
##:5
##78
##68
##67
##600
##6)
##39
##3)
##1.
##09
##05
##.s
##.7
##.1
##-ǹ-
##-ìp
##-wa
##-tó
##-or
##-má-
##-ló
##-lá
##-ki
##-ke
##-ka
##-iṣ
##-gbọ
##-gbé
##-bo
##-bi
##-be
##-ak
##-0
##,2
##,10
##)awon
##(nigeria
##(f
##(c
##(3
##(2
##'t
##",6
##ụ
##ọya
##ọrẹ
##ọlẹ
##ọl
##ọja
##ọj
##ọdẹ
##ọdun
##ẹwà
##ẹwo
##ẹw
##ẹg
##ẹf
##ṣíṣẹ
##ṣáyà
##ʹt
##ʹs
##ə
##ǹṣ
##ǹw
##ǹp
##ǹj
##ǹdẹ
##ǹb
##ũn
##ńtí
##ück
##úsù
##úr
##úmò
##úlì
##ùrù
##ùnm
##ùngbò
##ùlà
##ùbà
##õ
##óń
##ótọ
##órù
##óní
##óló
##ólá
##ókó
##ókun
##óhùn
##òró
##òm
##òkò
##ògún
##òg
##î
##íù
##íìkì
##íyàn
##íwá
##ísít
##ímì
##íká
##ígbà
##íf
##ídì
##ídà
##íbì
##í,
##ìwọ
##ìtàn
##ìrin
##ìnk
##ìn-ín
##ìkí
##éríà
##éní
##éh
##éfín
##é;
##èyí
##èwé
##èdó
##å
##áṣí
##áó
##áélì
##áyọ
##áya
##ásít
##ásí
##áríà
##ánù
##áníà
##ánáyà
##ánkán
##ámà
##ádọ
##ádé
##ábì
##ábádì
##àǹ
##àyè
##àrò
##àrì
##àp
##ànd
##àmú
##àkiri
##àgbọ
##àd
##àba
##·t
##·s
##zz
##zm
##zio
##zer
##zem
##yàf
##yp
##yor
##ynn
##yip
##yin,
##yanu
##yak
##yah
##y),
##wọl
##wòó
##wèé
##www
##wski
##wil
##water
##ward
##wam
##vu
##vn
##ving
##vid
##veri
##vc
##var
##vant
##vag
##uz
##uye
##ux
##uwa,
##ussi
##upọ
##upa
##unl
##unk
##unf
##ulos
##ulo
##uli
##uhari
##ubo
##tíl
##tìmí
##tél
##tura
##tur
##tto
##tsa
##tric
##toto
##toni
##tokun
##tok
##tock
##tiyan
##tini
##tina
##tiku
##ti-
##tele
##tein
##tea
##taì
##tari
##tanì
##tana
##tad
##t)
##sísì
##sìk
##sárì
##sáf
##swi
##ston
##sti
##state
##stal
##soy
##sor
##sman
##siu
##sil
##sian
##si-
##sev
##ses
##sday
##rótì
##ròy
##rínwó
##rímù
##rég
##rànló
##rz
##rv
##rum
##rugba
##ruf
##roko
##roi
##rob
##riwo
##rist
##rina
##rik
##rig
##ridge
##rica
##riam
##rel
##rei
##rde
##rce
##rap
##rak
##raj
##quin
##pọlọ
##pát
##pte
##pper
##po,
##pit
##pinnu
##phi
##phe
##peter
##pec
##peaks
##pea
##pdp
##pati
##oò
##ough
##ople
##ool
##omina
##olè
##ologi
##oje
##ois
##ohùn
##ogi
##ogen
##ogb
##off
##obe
##nṣe
##nṣ
##nò
##nít
##nílé
##nígba
##nánì
##nák
##nya
##nut
##ntẹ
##nrín
##nlẹ
##nja
##nitori
##nim
##nile
##nigb
##nif
##ngbà
##ngbe
##ngba
##nez
##nev
##nel
##nec
##nak
##naa
##mìí
##màw
##mycin
##mov
##moto
##mother
##mot
##mond
##mona
##mok
##mo,
##mini
##met
##mend
##meier
##mber
##mati
##mark
##mara
##mans
##lọr
##létí
##lém
##lowo
##long
##logun
##llan
##lit
##lina
##lg
##lf
##leu
##lek
##leg
##leb
##lc)
##late
##lal
##lain
##lagbà
##kọjá
##kút
##kúl
##kó-yọ
##kík
##kìkí
##kéré
##kárí
##kànmí
##kum
##kul
##kr
##koso
##kob
##ko,
##kne
##kk
##k-
##k,
##jẹ-
##jú-
##jàǹ
##jàn
##juto
##jumo
##ju,
##jor
##jinlẹ
##janu
##ja-
##iʹ
##ized
##iyé
##ix
##iwure
##itz
##itution
##itu
##iso
##irẹ
##ique
##ipe
##ions
##inle
##inj
##ines
##imú
##ijọ
##ijẹ
##idà
##ick
##icial
##ichi
##ibí
##ibo
##ia,
##i-l
##i)
##hánì
##hánánì
##hán
##hur
##hri
##how
##hou
##horn
##hma
##hm
##hle
##hil
##hik
##hei
##hari
##hard
##hang
##hali
##hak
##góg
##gíd
##gèdè
##gwa
##guin
##gri
##gle
##gis
##gio
##gc
##gboro
##gbepo
##gbasoke
##gbagbe
##gat
##gang
##ga,
##fòó
##fírí
##fètè
##furu
##fowo
##fol
##finro
##fil
##fal
##facts
##ezi
##eum
##esa
##erve
##ero,
##eric
##erf
##enden
##ej
##eigh
##egi
##edin
##edera
##eba
##eat
##ean
##e.
##dínláàádó
##dín-
##dáì
##dádì
##dàpọ
##dàn
##doy
##do,
##dir
##dii
##digb
##dh
##df
##dep
##deo
##demola
##dej
##dee
##ded
##david
##dara
##dane
##cul
##coc
##cm
##cie
##chs
##chr
##ches
##cep
##bójútó
##bár
##buru
##bull
##bour
##boolu
##boj
##bm
##bibi
##bi,
##bh
##beni
##bek
##baa
##ba-
##aʹ
##aá
##awó
##aux
##aud
##atis
##ated
##asti
##ashi
##arí
##apo
##any
##anti
##ante
##ann
##ande
##ames
##ame
##alt
##alam
##akoso
##ajú
##ais
##ahan
##aha
##adorin
##aci
##ace
##abà
##aar
##aadọta
##a.
”lara
“ò
“ninu
“ng
“lara
“ip
“igbe
“gbà
“eto
“be
’’i
‘ẹ
‘d
‘cheese
‘c
‘b
—aisha
–il
ỵẹ
ọṣun:
ọyún
ọtale
ọsánmọ
ọré
ọre
ọmọyẹle
ọlọṣun,
ọlọd
ọlání
ọlaju
ọl
ọkùnrín
ọká,
ọgẹdẹ
ọgo
ọgbà-àjàrà
ọdá
ọde
ọbal
ọbadán
ẹṣin-
ẹyà
ẹta
ẹt
ẹnítọ
ẹnik
ẹnii
ẹni-ì
ẹlẹyẹ
ẹlẹjẹ
ẹlẹfẹ
ẹlòmiràn
ẹlòm
ẹgbẹẹ
ẹgbàáj
ẹdinwo
ṣọn
ṣọla
ṣẹyẹ
ṣúre
ṣúpó
ṣúné
ṣúb
ṣóo
ṣólómónì
ṣóbálì
ṣíṣàtún
ṣíṣàkíyèsí
ṣíṣàk
ṣíṣ
ṣíse
ṣís
ṣíf
ṣìò
ṣéré
ṣéráh
ṣèrúbọ
ṣèmíì
ṣèbà
ṣáí
ṣámú
ṣálá
ṣábí
ṣábádì
ṣábà
ṣàìtó
ṣàìf
ṣàá
ṣàríyànjiyàn
ṣàmí
ṣàmì
ṣàgbà
ṣoge
ṣiwaju
ṣinú
ṣeṣe
ṣem
ṣekupa
ṣek
ṣegb
ṣaájú
ṣayé
ṣaroye
ṣam
ṣala
ṣajeji
ṣ'
ˈ
ʽa
ńy
ńt
ńsà
ńro
ńjá
ńgbẹ
ńgbè
ńdi
úr
únkúndùn
úkó
ú,7
ùndá
óm
òṣèm
òṣemàwe
òǹra
òǹkọrin
òǹkà
òńwòran
òórọ
òòrẹ
òòrun
òwọ
òw
òunjẹ
òtòlò
òtubáńtẹ
òriṣà
òpój
òni,
òkè-ọya
òkè-o
òkè-igbó
òkun,
òji
ògu
òfè
íṣ
ítír
ítaì
ínt
ílíríkónì
íd
íb
ìṣín
ìṣàpéjúwe
ìṣoro
ìṣelóg
ìṣafọ
ìṣaasùn
ìyàwóo
ìyànu
ìyarun
ìwòr
ìwé,20
ìwàa
ìtóbi
ìtìsẹ
ìtànkálè
ìtànká
ìtàn-ìṣẹ
ìti
ìtakùrọ
ìsọnísókí
ìsọdi
ìsír
ìsínwín
ìsí
ìsàpèjúwa
ìsàmì
ìsonísókí
ìrọwọ
ìróìfọ
ìròyin
ìràwé
ìràntí
ìrań
ìransẹ
ìranraẹnilọ
ìpẹja
ìpínfúnni
ìpén
ìpàrọwà
ìnágijẹ
ìmúrasílẹ
ìmúnisìn
ìmúlò
ìmúl
ìlú-ọba
ìláọ
ìlàjà
ìkùukù
ìkówèépamọ
ìkómọjáde
ìkínni
ìkàsí
ìki
ìkanisí
ìjẹrà
ìjímèrè
ìjìmì
ìh
ìgúnpá
ìgòkè
ìgínlẹ
ìgunnukó
ìgbóyà
ìgbókùú
ìgbìn
ìgbìdánwò
ìgbéròyìn
ìgbéj
ìgbé-ayé
ìgbádu
ìgbohùnsílè
ìfòré
ìfìwàwẹ
ìfèròwérò
ìfojúẹ
ìfiṣ
ìfetígbọ
ìdí-
ìdìtẹ
ìdé
ìdána
ìdáb
ìdaran
ìbínú-ẹkùn
ìbáse
ìbáradíje
ìbájẹ
ìbu
ìbomirinlè
ìbe
ìbanilórúkọjẹ
étanì
ésí
és
ér
ép
ém
élíélì
éléá
éli
éj
égíbítì
ég
éfúr
é,
èèpẹ
èèm
ètí
èrìnjẹ
èranko
ènìyàn-mímọ
èlísábẹ
èkù
èkó,
èkííní
èkímògún
èkìdá
èkè
èjìrẹ
ä
ã
áṣé
áń
átọ
áré
árám
ápíó
ákúbù
áhínóámù
áhá
áfí
ádúlámù
ádín
ádáyà
ádà
ábíátárì
àṣìpa
àṣo
àṣeṣ
àṣetẹ
àǹkóò
àìwà-bí-ọlọ
àìsírètí
àìsan
àìnít
àìl
àìfò
àìfaraṣiṣé
àìdúróṣinṣin
àìdíbàjẹ
àìbalẹ
ààdọ
àyí
àyá
àyàkokońnàkí
àyipadà
àwú
àwòtúnwò
àwòrán-an
àwòr
àwòmọ
àwòj
àtúnrà
àtúnpín
àtúndì
àtúndi
àtúnbọ
àtíkè
àtìlẹyìn
àtáója
àtoṣù
àtisùn
àtiran
àtilo
àtigbè
àtigbà
àtibímọ
àtib
àtaya
àsùnjí
àrékendá
àrèmábò
àràm
àro
àpẹẹrẹ,
àpólà-
àpò-
àpè
àpat
àmúṣe
àmúṣ
àlùj
àlùfàá
àláà
àlàá
àkí
àkéde
àkànpọ
àkànlòèdè
àkeèké
àke
àjẹṣé
àjàẹnu
àjàkáyé
àjàká
àjàgbà
àh
àgàd
àgunl
àgbẹdọ
àgbálùmọ
àgbàyé
àgbagbà
àfàsé
àfà
àfojú
àdún
àdú
àdùnní
àdírẹ
àdání
àbúròo
àbú
àbábọ
àbàj
àbo
àbajáde
záhor
zoroaster
zenith
zen
zbigniew
zan
zah
yόò
yọni
yóo
yíyíjú
yíyàtò
yío
yìí',22
yìngbìn
yìn.
yìn-
yábàá
yàẹ
yànn
yut
yussuf
yunifasiti
yourself
yor
yoonhee
yoju
yiri
yesile
yek
yas
yanrantí
yanna
yakubu,
xx
wọya
wọnyí
wọnn
wọnl
wọngè
wọlé-
wúre
wùhó
wìrìwìrì
wèrèpè
wáà
wáh
wá;
wày
wàwà
wàs
wàláàyè
wà",25
wu,
wt
writing
wp
woodu
woodhead
woman
wolfe
wit
wis
winn
wing
whi
wewantthetruth
wend
wembley
welsh
wellness
webster’s
wartburg
wari
want
waltraud
wa,woli
víctor
vod
vite
visual
visigoth
vice
vete
vavoua
vasiliy
vardja
vania
vaca
usupbaev
uss
urdu
united,
uko
udoh
ubah
t’ó
tọmọdétàgbà
túlà
túfọ
tùù
tómúná
tólà
tóf
tóbá
tó-
tòbáyà
tòb
tíátà,
tís
tíf
tìrìgàngàn
tìp
tìmótíù
tìka
tìgbàkigbà
tétí
táátààtá
tás
tám
tábí
tàà
tàt
tàlọ
tàlérúgba
tàl
tàdínlóg
tàdínláàádóje
tz
tweet
tuntun,21
tulip
tuba
tsafe
tsa
trustees
trinity
trafford
tradition
track
toyota
tout
torres
tonílé
tonal
tomo
toló
toba
tiyì
tiy
tiwantiwa,
tiv
tise
tipatipa
tio
tillerson
til
tib
thutmose
thomson
think
things
themb
thelma
temple
temitọpẹ
telephone
technobayo
tech
teachers
tattafo
tat
tasić
tanga
tampan
tami
talo
talaka
takun
takada
tag
taf
tadínlógún
tabitha
ta;
ta-
sọp
sẹwọn
sẹk
sẹg
sók
sóbà
sòkòtò
síṣun
síì
síté
sísinmi
sísanwó
sínsin
síi",10
síh
sífì
sí;
sìnwoèdè
sìnlú
sìb
séèfù
sérúíà
sédè
sébó
sèè
sèlérí
sègbé
sáj
sáfír
sádùúgbò
sád
sàìjẹ
sàsọrẹ
sàl
sàk
sàb
system
swift
swi
suzie
sut
supot
superstition
suna
sultan
suk
suga
suez
such
stud
stop
still
stellaoduah
statistics
staten
stad
spr
spain);
source
sound
sophie
solo
solnechnoye
soj
sodo(4-0)
sodium
sobi
sna
smwe
smart
sixtus
sisun
single
sinaiticus
sin-ín
simo
silvest
silistra
silas
sid
sia
si:
shod
shimbun
sheri
shara
shama
shal
shak
shad
serv
sera
seo
sekilo
sejọba
section
secondus
sebe,
sd
scrabble:
schools
schl
savi
saturnalia
sarè
sars,13
santan
salọ,
salá
salvatore
salman
saliu
saif
sabi
rọwò
rọru
rọr
rọlẹ
rẹrẹẹrẹ
rúnm
rógun
ríṣ
rírẹjú
ríre
rírawó
ríl
rìnlélé
rìndín
réúbẹ
rék
réhúm
rètínù
ráń
ránńṣẹ
ránró
rànm
rut
rukayat
rui
rotherham
roof
roh
rodríguez
rodney
roc
rise
riru
rinl
rih
ricky
ri:
rew
reuben
response
resi
remember
religions
rel
rek
reggae
reed
realseunkuti
really
rea
raye
rarẹ
rantí
rangers
rana
rai
rad
racquel
pẹtu
pẹlawọn
pẹ,
pùpùpù
pòjù
pípọn
pípolówó
pínn
píl
pédá
páṣẹ
páwọn
pákáleke
páfósì
pádọ
pàà
pày
pàtàkí
pàr
pàl
pàdánu
pàde
prussia
protestantism
protestant
protection
pros
prom
problem
privacy
princeton
precious
pr
powell
pou
posi
popula
poora
ponce
polúkúrúmuṣu
pn
pm
plánẹ
pipegede
pic
phillipe",6
pha
perry
perez
pere,
pem
pelé
pek
pegede,
pe,“a
paṣ
paul:
paul.
past
pasi-paro
paris,
pajawiri,
pagi
padani-árámù
paali
paa,
oń
oòrùn,
ozo
oyindamọla
oye,
owọ
owoo
owon-gogo
own
owerri
ounje,
oun.
otẹlẹmuyẹ
osẹlu
osṣu
osusu
oshi
orúkọọ
orùba
orís
orí-ìtàgé
orule
oruka
oruk
ortiz
ort
orin-i
opera
opec
ooré
oooo
oodua,24
onírú
onírùngb
onípàkọ
onípà
onílànà
oníkóró
oníkó
oníkè
oníkoríko
oníjọba
onígbogí
onífara
onyekuru
onyeama,
ono
onitsha
onisẹ
oniresi
onile-ise
onika
onib
ona,
omisore
omid
oma
olόyè
olúọ
olúṣọlá
olúìlú
olúm
olúd
olúbákin
olú-ìwà
olùy
olùw
olùsọdipúpọ
olùkópa
olùgbéra
olùgbè
olùgbatẹnirò
olùf
olùdìbò
olùdánilé
olóórí
olówóòkéré
olótùú
olórúkọ
olórí-
olófìn
olódì
oluṣegun
olutoye,
oluso
oluse
olur
olupe
olunl
olukoni
olujọsin
olujẹjọ
oluj
olufẹmi
olufunmilọla
olu,
oloṣere
olorun,
olopo
olokun
oloja
olodun
olodumare
olod
okoro
okonjo-iweala
okon
okene
oke,
ojú-ọ
ojoaje
ojo-a
ojile
ohún
ohaneze
ogún-
ogunlọgọ
ogundipe
oghota
ogbomos
ogbele
ogbanje
oga-agba
ofege
odumakin
odaran,
och
obin
obayeje
oau
oath
o-le
nọnba
nǹk
níw
nítẹríba
nítòòsí
nítorí-èyí
nísìn
níràn
nírun
níp
nílé-
nílé,28
níle
níbàá
níb
nìyá
nìy
nétọ
nélíù
nébá
náì
náf
nwò
nwachukwu
nut
nupe,
num
nulọ
nuj
ntàbúrò
ntu
nrẹ
npẹ
norwich
norw
norberto
nneka
nkí
nkàn
nki
nkan,
njọ
njù
ni“
nií
nitorinaa,
nisan
nirole
nipato
nine
niise
nigeriadecides2019:
niger-
nigbẹ
nigbatiwonde
nigbakan
nicola
nibẹ.
niba
ni?
ngorongoro
netherland
nepali
needs
nec
nbélé
nazar
nau
natural
nasẹ
nasyrlayev
nara
naira(
naha
na,
n-an
mọwá
mọlédè
mọka
mọk
mẹrinlelọg
mẹrindinlọgọ
mẹkáníìkì
mẹkunu
mü
múw
múmú
múmi
mùkọ
mù-
mós
mórẹ
mòrẹ
míṣí
míṣ
mímóoru
mímé
mìíìn
mìíràn,
méríb
mérémótì
méjídínlọ
méjìdínláàdọ
méjì-
méf
máńdírékì
máásé
másórétì
márùnlélógóje
márùn-un
málíkíjà
máhánáímù
máb
màrè
mànásè
màjè
musibau
museo
mus
multi
much
mub
moye
moya
moy
mov
mosel
moresby
monguno
momo
mom
mogadishu
mofẹ
mof
mnangagwa
mk
miy
mittel
mithra
minnesota
mimu,
mimojuto
mimi
millionu
milan,
mika
miguna
mi""
mh
mex
metalelaadota
met
merinlelogo
mening
melita
melesio
mele
melaye,
melanin
meedogun
medogun
meat
mccoy
mcc
mbe
maxi
mauro
matte
mathe
masari
masako
masahiko
marundinlogbon
martínez
martini
marshal
marr
marks:
marilou
marg
marek
mansa
mangkhut
manfe
mane
mancini
mamman
malinda
malaria
maki
maka
mairambubu
mahmud
magic
macarena
l’e
lọr
lọmẹ
lọlọ
lọkọlaya
lọgba
lọ",22
lẹẹmeji
lẹyin,
lẹtà
lẹrù
lẹru
lẹkọ
lẹja
lẹba
lúyàré
lúl
lùú
lóy
lówùúrọ
lókùú
lóké
lók
lójúu
lójúmọmọ
lójó
lób
lògbà
lòfin
lòbí
lìngúísíìkì
lì,
léy
léwájú
létò
lére
lél
lébi
lé-
lèrè
lèmọ
láṣìṣe
láṣà
láṣebìkan
láìronújinlè
láìbo
láìb
láàárìn
láàá
láwòfín
látọdúnmọdún
látì
látètèkó
látibi
lásọ
lárà
lára",19
lápàpàn
lám
lálàṣí
lákòtán
lákísì
láh
lágboolé
làṣ
làákáyè
làájá
làt
làl
làkókò
làká
làgb
làbò
lunkin
luka
lui
ltd
louv
losan
lolu
lolo
lokunrin
lok
lojo-eti
lock
llama
little
ling
lind
licht
lic
leventis
leroy
lenore
lejú
lej
leeuwen
leem
lebi
league,
leadership
laṣe
lauri
latọwọ
latil
lapapọ,
lanti
lanl
lamilaaka
lakselv
lakooko
lajọ
laiyọ
lainé
lagos,
lagboole,
lagba
lagb
lafia
lafi
laamu
kọrọ
kọr
kọnsitantinópù
kọnkéré
kọlawọle
kọjá,
kẹẹd
kẹwaa
kẹr
kùrà
kùm
kóṣ
kórá
kód
kòsọ
kòrí
kòlòb
kòj
kògbéregbè
kírís
kínla
kílówátì
kíjìpá
kìì
kìníní
kìn-ní-ní
kìjí
kéè
kéwé
kélekèle
kéke
kéjìl
káàkiiri
káw
kátó
kárbọ
káp
kání
kánmọ
kálọ
kájọlà
kágbá
kàrán
kànr
kànnàn
kàn-
kàjọ
kàbìtì
kyrgyz
kuuru
kusserow
kush
kur
kumo
kudie-kudie
kud
kuba
kua
kotọ
koroma
korea,
korajọ
kokoko
koine
kofiri
kob
kna
klu
kitty
kitt
kirk
kingdom,
kill
kikede
kh
keshi
kemi
kem
kelani
kek
keita
kaṣ
kazuhiro
kazakh
kaye
kata-kara
kasu
kase
kareem
kanlo
kankòjò
kankan.
kachikwu
kach
kabir
kaba
kaaro
kaanu
ka-
jẹn
jẹ.
jù,
jóṣéfù
jóíá
jók
jòṣíà
jòhánnù
jíjìyà
jíjàyò
jíjuwó
jídé
jìjà
jéèyàn
jérí
jérém
jép
jánu
jálá
jál
jáj
jágbọ
jáfétì
jáfé
jábókù
jáb
jàá
jàd
juventus,
jul
jude
josua
josephine
jos,
jobì
job
joanne
joanna
jiw
jind
jill
jibiti,
jib
jeyọ
jes
jerúsálẹ
jerem
jepe,
jeni
jel
jehóṣáfátì
jedaláyà
jean-
jasupport
jasmine
jankanjankan
jani
jamilu
jafa
jad
ja'afar
i’
iṣire
iṣej
iṣedajọ
iyàgbà
iyo
iyekíye
iyarere
iyalodeibadan
iyabadan
iwọle
iwosan,
iwor
iwoorun
iwase
iwari
iwaju,
ivanenko
itor
itanodoiyewa
itangbangba
itanfulani
isọri
isthmus
isipo
ishola
ishaq
isha
isami
isabella
irẹpọ
irònú
irène
irá
iroko
ire,
ipejọpọ
ipanu
ipanle
ipada
ion
introduction
interna
inn
ingrid
inecnigeria
inec)
indonéṣíà
imurasilẹ
impr
imperial
imld
imaamu
ilú-
ilé-ìt
ilé-i
ilse
illustration
ileya
ile-okeere
ile-kiko
ile-igbi
ile-afrika
ilajẹ
ilaji
ikẹyin
ikẹhin
ikàn
ikowe
ikore
ikom
ikinlo
iki
ikede,
ijaw
ijapa
igurúta
igi,
igbelu
igbelaruge
igbekun
igbayegbadun
igbami-eye
igbagboyorubanipaaje
igba-
ifọkansin
iforotonileti
ifor
ifokansin
ifoju
ifaseyin
idunkooko
idunadura
idokowo,
idiye
idiwo
idanilẹkọọ
idah
ibọn,
ibá
ibi-ìkọ
ibi-
ibanujẹ,
hẹlẹ
húsì
hórónì
hísópù
híl
héṣ
háró
hápù
hánán
hámọ
hànnúhàn
hur
huddersfield
huang
hou
horl
hooper
homo
hol
hoffman
hirapólísì
hilda
heṣekíà
herculaneum
helmut
hell
heli
hein
hei
heav
hear
hau
harr
harper
harl
handbook
haka
hailemariam
hail
haha
haffner
gúú
gúsu
gúnyán
gósénì
gírà
gíd
gérí
gén
gám
gálí
gàbalé
gut
gusau
guri
gur
guil
gue
grounds
grandma
granada
goo
gonzález
gomin
gn
gm
glu
glo
giulian
giorgi
gillet
gidig
gid
ggb
gertrude
georg
gen
gegi
gdp
gbọr
gbọnmọ
gbọngbọn,
gbẹs
gbúdọ
gbùn
gbóúnjẹ
gbògbò
gbígbónájanjan
gbígbajúmò
gbí
gbéy
gbèrọ
gbáp
gbáfé
gbàwá
gbàkó
gbàgà
gbàg
gbori
gbooro
gbon
gbol
gbimọ
gbeyin,
gbede
gbaye
gbadọ
gba(penalty
gator
gasp
gardner
gang
gali
gaff
gaba
fọgbọ
fẹsi
fùfúdè
fíìmùadádúró
fíríì
fíríjíà
fírì
fílém
fífowó
fífinú
fìrífìrí
fìbò
fìbà
félix
fáṣ
fáj
future
fugen
fue
fuchs
ft
fru
friend
fri
fres
freeman
fraser
français
fow
former
fonte
follow
fiṣọ
fiṣ
fiw
fitami
firoyin
finu
fila
fij
figa-gbaga
fie
fib
feel
faṣọla
fau
fattah
fatafata
farel
farapa,
fansconnect
famalay
falọmọ
falconets
faji
fadéké
f'àmì
f'awọn
eés
eéjì
eyiun
express
expe
executive
ewé-
ewurẹ
ewialohun
eve
eugene
etíìgbọ
eti,
eti(friday),
eta
et302
esú
erù
epo-
epistle
epi
enyeama
environment
england,
emí
emirates
emefiele
eléèémí
eléw
elsebeth
elrufai
elliot
elisa
elenu
elekun-jekun
ekong
ege
egbenileyoruba
eeṣe
eero
edegbe
earl
dọlọ
dọl
dún-un
dóòlà
dót
dórì
dókò
dókè
dójútì
dínlógún
dínku
dílì
dídáwà
dídámò
dìjọ
déedée
déb
dé,
dáńtọ
dáńgájíà
dáwò
dárin
dánàdánà
dág
dàgb
dul
dsp
dow
dour
doreen
don’t
donmonran
done
dona
dom
dolores
dolly
dola,
dola(
dojúùjà
does
doctor
ditẹ
discover
direct
diojany
dini
dile
digest
dieter
devi
deu
deposit
deo
deni
deedee
daurama
dat
dasán
dará
darugbo
dantọ
danni
dankwambo
daloa
daku
dahomey
dah
curtis
curr
culture:
critical
cran
courier
country
copa
cool
contortionist:
congr
conce
compare
colli
cochabamba
cn
cms
cliché
claudio
claudete
clas
cla
cir
cia
christophe
chil
chidozie
chau
cham
chadwick
chad,
ceylon
centuries
carla
cardi
capital
cand
canada,
cameroun
calcium
bọlánlé
bọlaji
bẹtir
bẹti-á
bẹru
bẹl
búlẹ
búlù
búb
bùdó
bòńbàtà
bòó
bòtswánà
bísọ
bírú
bírà
bíná
bíkò
bíbuyì
bíbi
bí?
bìáparapọ
béṣ
béérótì
bésálélì
bérébéré
báṣẹ
báṣ
báánà
bárá
báramu
bálé
bákòókò
bàlúù
bàl
bàbá,
byr
buwọlu.
busari
burúburú
burgas
bund
bula
buka
buenos
buchenwald
brun
brucioli
bromwich
brit
bring
brexit
bose
born
bonds
bois
blanc
bisoye
bim
bilonu
bilbao
bij
bic
betuel
bethel
beri
bena
beliṣáṣárì
belgrade
being
bei
beh
beet
becky
bea
baz
baum
based
barth
bart
barrow
baro
bantu
banky
bangalore
bamitíìsímù
bami
ball’
ball
bali
bae
badagry:
babá
babayẹmi
baalẹ
aṣọle
aṣí
aṣemaṣe
aṣe-ìbálòpọ
aṣante
aṣ
ayípadà
ayéka
ayè
aymara
ayika,
awọlumatẹ?,27
awolo
auto
autism
austria-hungary
australia,
aud
atọrunwa
atọnisọna
atọna
atọkun
atá
atà
ateyinwa
atef
atata
atani
atalè
asínjẹ
asunwọn
asu
astana
asahi
arópò
aríṣ
arítẹni
arán
arsen
arkansas
arinkinkin
aringbungbun
arenas
araye,
araye
ararẹ
arabirin
apé
apákejì
apple
aporó
aporo
apile
apapọ,
apanilẹrin
apanilára
aníwúrà
anrun
anny
angola,
anato
anas
anab
amúniláradá
amúkùn
amára
amá
amusẹ
amus
amugberu
amenhotep
ambode,
alù
aláṣà
aláìwúlò
aláìwà
aláìníṣé
aláìnílé
aláìlójú
aláìlérè
aláìj
aláìgbédè
aláìgbatẹnirò
aláìfòró
aláìd
aláásìkí
aláy
alátẹnu
alátè
alápapò
alálù
alákàrà
alákoso
alákeji
alájọ
alájùmò
alágbérè
alád
alábọ
alábùkún-fún
alábàákú
alábagbé
always
allyson
allah,
alla
alimo
alhaja
aleku
ald
alcohol
albrecht
alayo
alatiṣe
alatagba
alat
alaro
alarede
alamí
alajọ
alaj
alaile
alada
alabásítà
alabe
akọsilẹ,
akọrọyin
akínyẹmí
akínwọler
akéréburú
akábọ
akun
akopa
akonimo
akoko,
akojọ
akinw
akintola
akil
akekoobinrin
akeko
ajílẹ
ajì
ajà
ajile
ajere
ajagunfẹyinti
aires
aiko
aij
aigbọ
aib
agẹṣin
agricultural
agbohùn
agbewiri,
agbej
agbara,
agban
afọlabi
afòró
afíríkà
afìkarahun
afàjà
afun
afrika,22
africa)
afipè
afigagbága
afafàsé
adọrin
adíp
adífáṣẹ
adì
adéníkẹ
adékẹ
adédì
adáni
adág
adwa
adura,
adria
adoola
adj
adeọla
adeyinka
adey
adewole
adeo
adela
adeko
adek
adej
adedi
adayeba
adan
adal
achieve
abẹṣẹkubiojo
abẹle,
abì
abáy
aboud
abdulsalam
abdulra
abdu
abdelaziz
abb
abari
aajo
aadọ
a-bi
@n
@b
9,000
850
8.
617
6,000,000
560
5,500
460
365
340
33,000
310
3,8
3,600
27,000
26,000
26,
24,
224
214
212
205
2018:
2011,
2007,
2000,
2-
2,800
2)
195
190
19,
1897
1896
1895
1894
1890
1877
1873
1862
1861
184
18,000
18,
174
1648
16,000
1572
1553
1534
1530
1,5
1,0
1)
02
-ọmọ
-ẹran
-ìròyìn
-è
-àgbẹ
-sí
-oló
-lọ
-iṣẹ
-ir
-akọ-àti-akọ
,ogbeni
,nitori
,eyi
(south
(san)
(pe
(pa
(np
(nc
(nb
(mi
(leicester
(k
(idibo
(ic
(h
(ef
(au
(ad
(200
(20
'àgba
'e
''wọn
''ni
''m
#u
#team9jastrong
#s
#p
#m
#f
#e
"ìgbésẹ
"èré
"o
"le
"helen
"election
"ejò
"a
""wọn
""sugbọn,
""ir
""g
!,23
##[
##?”
##?,1
##93
##88
##87
##800
##79
##700
##69
##59
##08
##00,000
##-ìt
##-ìn
##-àì
##-tọ
##-to
##-taya
##-sá
##-ol
##-na
##-me
##-lẹ
##-kó
##-kán
##-kun
##-kan
##-is
##-ge
##-ga
##-eni
##-ede
##-dín-
##-dá
##-ar
##-ab
##,31
##,30
##(w
##(m
##"",
##"
##!!!
##”e
##”.
##“o
##“a
##’i
##ọy
##ọtọ
##ọrí
##ọra
##ọmi
##ọlé
##ọh
##ọgb
##ẹyin
##ẹmi
##ẹl
##ẹku
##ṣọla
##ṣíṣ
##ṣíà
##ṣèg
##ṣer
##ṣag
##ر
##р
##е
##ί
##ʽ
##ʹl
##ș
##ǹtì
##ǹt
##ǹg
##ǹ-
##şe
##ńtíì
##ńtá
##ńta
##ĩ
##ě
##ür
##útú
##úrọ
##únr
##únkún
##úni
##úngb
##úfíndò
##údú
##ú,
##ùngb
##ùnd
##ùjà
##ù-
##ôme
##ô
##óyá
##óy
##ówùú
##órógbó
##óri
##ónà
##ólì
##ólém
##ólà
##ókòó
##ójúmọ
##ój
##ógo
##ódò
##ó-lé
##òórùn
##òrun
##ògùn
##òdò
##òbò
##ño
##íìnì
##íát
##íyé
##íyè
##írán
##íri
##ío
##ínlóg
##ímà
##ílí
##íkú
##íkó
##íjà
##íh
##ífí
##ídá
##ìyẹ
##ìrègún
##ìra
##ìnr
##ìnlẹ
##ìnl
##ìgbómìnà
##ìbá
##ìa
##éédé
##éèk
##étónì
##étí
##ésérì
##érù
##éran
##éná
##ékíà
##ékáyà
##éjú
##éje
##égà
##égb
##édé
##ébà
##èyàn
##èw
##ètì
##èt
##ène
##èmi
##èm
##èlè
##èj
##ân
##â
##áńdà
##áàádọ
##áàdọ
##áyì
##ápá
##álé
##áhá
##ádùn
##ádà
##ábá
##áb
##àta
##àpọ
##àh
##àdì
##àdà
##àbá
##àb
##·si
##·r
##·o
##·m
##zs
##zn
##zir
##zhn
##zam
##zaky
##zai
##z,
##yẹmi
##yàwòrán
##yya
##yth
##ysi
##yre
##yio
##yinwa
##yel
##ycl
##yc
##ybr
##yawo
##yanju
##yam
##wọle
##wúrọ
##wòsàn
##wèrè
##wákàtí
##wàdà
##woro
##world
##wor
##wich
##wee
##wc
##ware
##wap
##wadii
##w,
##vot
##vina
##vier
##victor
##vent
##uzz
##uwe
##uw
##usa
##uri
##upp
##unnu
##unn
##unm
##une
##umi
##ulù
##ult
##uka
##uit
##uh
##ugur
##ugu
##ufu
##uer
##ubl
##ubi
##uar
##u)
##tọr
##tọmọ
##tẹr
##tìk
##ture
##tuk
##tröm
##tp
##tou
##torí
##toju
##tod
##toc
##tiz
##tier
##thi
##tech
##tb
##tation
##tat
##talì
##tala
##tah
##t.
##sún
##síl
##sára
##suu
##super
##sup
##sunk
##sul
##stre
##stin
##sten
##sona
##som
##sol
##sler
##sipo
##sinbajo
##siko
##sic
##seg
##se,
##safe
##sade
##róró
##ríb
##ruru
##rto
##rs)
##ror
##roo
##roj
##rogb
##rod
##roc
##rno
##riṣ
##rinwo
##ring
##rida
##rid
##rich
##repo
##rent
##rea
##rayá
##rati
##raphy
##rana
##rain
##rai
##raga
##rabinrin
##qs
##pẹẹrẹ
##píp
##páà
##pàà
##pul
##post
##pol
##point
##pia
##phan
##pes
##pers
##pect
##pd
##pap
##pani
##p),
##oòrùn
##ox
##otun
##ott
##osun
##orúko
##ores
##oration
##opu
##opi
##oogun
##ony
##onto
##omu
##omin
##omen
##ols
##olor
##olla
##olat
##oku
##oha
##ogu
##ogne
##nís
##nírinwó
##nímò
##ník
##níf
##nwọ
##nwó
##nusọ
##num
##ntì
##ntor
##nsẹ
##nrìn
##nre
##nran
##nqui
##not
##nos
##nol
##nob
##nlé
##nla
##niyan
##nita
##niso
##nike
##nij
##nig
##nho
##ngi
##nfan
##nfa
##new
##ndar
##naya
##nac
##n-t
##mọr
##múlò
##mítà
##mìlà
##mát
##máfétì
##mus
##muham
##mt
##mpe
##more
##moo
##mobi
##ml
##mita
##mira
##mili
##mid
##meter
##mej
##mei
##med
##mea
##md
##mc
##mbi
##mato
##mart
##manov
##mai
##lúk
##lólobó
##lók
##lòó
##lít
##lv
##lution
##luc
##lory
##longo
##logy
##ln
##lity
##lik
##leyi
##lev
##lett
##leme
##leke
##lde
##laye
##laya
##last
##laraya
##lani
##lang
##lana
##laf
##lae
##labi
##kẹn
##kúṣe
##kùṣù
##kùr
##kùnr
##kíy
##kíw
##káà
##kágb
##kàkà
##kunle
##kunl
##kulu
##ksi
##kowe
##kori
##kol
##kn
##kle
##kl
##kj
##kit
##kind
##kho
##kantí
##kanju
##jẹun
##jíj
##jíire
##jìnnì
##jum
##ju-
##joyè
##jon
##jil
##jeg
##jee
##jam
##iọ
##iṣe
##iʹa
##izo
##ization
##iwaju
##ivo
##iver
##iv
##itọ
##ití
##its
##ital
##isọ
##isẹ
##ische
##iroyin
##into
##inr
##inn
##inh
##inec
##imoh
##illi
##illa
##ild
##ikẹ
##ijoba
##igr
##ign
##igbimo
##igbe
##iak
##i.
##hírót
##hásì
##hun-
##huk
##house
##hos
##honu
##hoff
##hla
##hit
##hig
##hf
##het
##here
##heim
##hb
##hausen
##hani
##gúdú
##gur
##grou
##gov
##god
##git
##gha
##get
##gbàn
##gbun
##gbod
##gari
##gagun
##gaard
##fẹmi
##fèrè
##fátì
##fán
##fàsé
##frica
##fp
##fihan
##fes
##fara
##eé
##eè
##ewe
##eve
##ety
##essa
##esan
##erv
##erl
##eria
##erge
##eret
##erc
##er,
##epa
##enz
##ensi
##ense
##enne
##enin
##enb
##emu
##emb
##ejù
##eem
##eel
##east
##eas
##eam
##e),
##dòru
##díl
##día
##dék
##dé-
##dát
##dára
##dál
##dàgbà
##dunrun
##doru
##dol
##dogun
##dmo
##dm
##dlu
##dina
##dez
##dera
##dae
##cz
##cted
##cro
##cr
##cou
##cn
##citì
##cion
##cien
##chy
##chir
##cau
##c,
##bíà
##bíy
##bím
##bìr
##báni
##bál
##bàr
##bt
##boro
##bojo
##bo,
##binu
##big
##bha
##bere
##bell
##bela
##begi
##bee
##bbe
##bang
##b-
##aǹ
##ayá
##ave
##att
##ational
##asofin
##asin
##aríà
##ará
##ario
##aran
##arab
##apt
##ape
##anṣ
##anran
##ankan
##an)
##amba
##alla
##akeji
##ajọ
##ajẹ
##aij
##agn
##agbà
##agb
##afa
##adọ
##ack
##aca
##abẹ
##abr
##aarẹ
##aadọrin
##aadọ
##a-t
”m
”ip
”asofin
”ak
“si
“or
“ojú
“oj
“nitori
“mi
“la
“ipinnu
“ik
“igbimo
“id
“ib
“eleyii
“ba
“af
’’“
’’m
‘t
‘l
‘koda,
‘g
―
–jado
ọṣunwẹdẹ,
ọṣunkẹmi
ọwọn
ọun
ọtún
ọtalelọ
ọrọ,
ọra,
ọna,
ọmọluwabi
ọmọluabi
ọmọg
ọmọd
ọmọbibi
ọlọk
ọláy
ọlo
ọkọl
ọkunkundun
ọjọọjọ
ọja,
ọgbin,
ọdúnmó
ọd
ọbumneme,
ọbaa
ọ-
ẹṣ
ẹyọwó
ẹyinju
ẹtà
ẹsẹ,
ẹrọ,
ẹrú,
ẹníkẹ
ẹnu-
ẹniẹlẹ
ẹni;
ẹkọṣẹ
ẹjo
ẹhin
ẹgbẹd
ẹfunsetan
ẹdọ
ẹdógún
ṣọọ
ṣọlá
ṣọl
ṣọgbó
ṣẹsẹ
ṣẹk
ṣúúrú
ṣúkótì
ṣùúrù
ṣóm
ṣólàńkẹ
ṣójú
ṣòṣ
ṣòun
ṣòdì
ṣíṣẹlè
ṣíṣíwó
ṣíṣègbéyàwó
ṣíṣákì
ṣíṣàgbéyè
ṣíṣo
ṣíni
ṣíméà
ṣìná
ṣìngín
ṣéírì
ṣét
ṣérúbábélì
ṣérébáyà
ṣém
ṣélóm
ṣèṣì
ṣètòlé
ṣèran
ṣèkejì
ṣèdárò
ṣáńbálátì
ṣánp
ṣámúẹ
ṣámúṣámú
ṣálímúnà
ṣálàáfíà
ṣákúrì
ṣábàá
ṣàìdá
ṣàwarí
ṣàj
ṣàfi
ṣori
ṣol
ṣiṣi
ṣir
ṣey
ṣeranwọ
ṣerami
ṣef
ṣedekáyà
ṣe,4
ṣaṣeyọri
ṣaáwò
ṣangiliti
ṣamọ
ṣagídí
ṣade
ḿmúni
ǹṣó
ǹgbè
štefan
ńṣiṣẹ
ńra
ńpẹ
ńmọ
ńmú
ńjó
ńbàdàn
úlá
óy
ów
ótín
órébù
ónánì
ój
òṣùbà
òṣìsẹ
òṣìkàpànìyàn
òóru
òòy
òòr
òò
òyó
òyè
òwù
òun,
òsí
òsìsẹ
òsìkà
òsèré
òrún
òrù
òrófó
òron
òpépé
òkúùgbé
òkóbó
òkè-ọ
òko
òjìlél
òje
ògù
ògèdè
ògbólógb
ògbìgbà
ògbo
òfútùfẹ
òfínràn
òfuru
òdu
òbìrí
ñ
íṣítà
íw
ísá
ílẹ
íf
ídò
ìṣú
ìṣòfin
ìṣílé
ìṣì
ìṣèṣe
ìṣèwéjáde
ìṣi
ìyán
ìyàwó,
ìyànà
ìyekan
ìwádí
ìtújáde
ìtòò
ìtànkálẹ
ìtàn,
ìtàkùrọsọ
ìtunu
ìtorí
ìto
ìsọdọ
ìsún
ìsó
ìsís
ìsás
ìsààmì
ìsopọ
ìsokó
ìsanpadà
ìrùdí
ìrìns
ìrand
ìpàd
ìpoògùn
ìpan
ìmumi
ìlọs
ìlúọba
ìlú.
ìlóyún
ìlér
ìkọlura
ìkọkànlélógún
ìkówójọ
ìkórira
ìkól
ìkàrẹ
ìkàl
ìkejìlél
ìke
ìkasè
ìjọba-àpapọ
ìjẹg
ìjòyé
ìjám
ìjàk
ìjàgbara
ìjà,
ìhunṣọ
ìgà
ìgunnukó:
ìgbéga-ọ
ìgbáradì
ìgbákejì
ìgbàkú
ìgbeyàwó
ìga
ìfọkànt
ìfòpin
ìfìyà
ìfìfé
ìfìdírẹmi
ìfèsì
ìfowó
ìfojúàṣàìbílẹ
ìfo
ìfiṣẹ
ìfiṣòfò
ìfinisé
ìfaraṣàpèjúwe
ìdúrós
ìdín
ìdìwé
ìdìkú
ìdìgbòlù
ìdìb
ìdáà
ìdásí
ìdás
ìdáríjini
ìdánilọ
ìdámọ
ìdààmú-ayé
ìdàr
ìdàn
ìdàgbàsóké,8
ìde
ìbẹrin
ìbúgbàmù
ìbùwọ
ìbíi
ìbìlù
ìbál
ìbágbé
ìbàn
ìbodè
ésì
éná
én
élónì
élíṣ
ék
èéṣé
èés
èèyàn,1
èyín
ètò-ì
ètu
èsúró
èsú
èsùn
èròngbà
èro
ènìyán
èm
èkuru
èdá
áí
ású
ásídódù
ásì
ásár
áríkì
árífá
árábíà
áp
ámúrá
álím
áh
ágárì
ágábù
ágb
áfúródáítì
áfé
ádí
á,
àṣán
àṣà,
àṣiri
àṣeyori
àṣem
àṣa
àìṣòótọ
àìṣòtít
àìṣed
àìyédè
àìpò
àìná
àìlèjẹun
àìkọlà
àìkọ
àìjẹ
àìgbà
àìgb
àìd
àìbára
àìbá
àádo
ààntéré
àyọkúrò
àyípoyípo
àyìnlá
àyangbẹ
àtẹl
àtàárò
àtàbúrò
àtunbọ
àtojú
àtiṣè
àtirówó
àtiràn
àtijèrè
àtijáde
àtibó
àsopọ
àsanfidípò
àsan
àríwá-ìwọ
àri
àr
àpẹ
àpàpàn
àníkún
àníjù
ànìkàngbé
ànìkàn
àná,
àmi
àlùbọ
àlùb
àlòjù
àlégbà
àláàfíà
àkót
àkàṣu
àkàà
àkànní
àk
àjẹkún
àjẹk
àjày
àgùnfọn
àgà
àgbọnm
àgbì
àgbés
àgbérìn
àgbáǹréré
àgbáyé,8
àgbàká
àgbàgbà
àgbe
àfọkàn
àfẹsẹ
àfíyèsí
àforí
àfo
àfiyanni
àfiwọn
àfipámúniṣe
àfifò
àfa
àdù
àdínkù
àdé
àdo
àbàrá
àbi
àbbl
àa
à-gb
zinc
zheleznodorozhniy
zel
zeit
zaragoza
zakariyah
yọjúràn
yẹmí
yẹl
yíyááfì
yíyanilẹ
yéye
yéw
yèpéyèpé
yáá
yáàjà
yám
yàlà
yury
yuroopu,
yunifásitì
yuk
yombo
yinrinyinrin
yew
yesvernacular
yesufa:
yesica
yena
yem
yaá
yatosi
yangí
yakut
yahoo
yagba
yagb
xe
wùmí
wíì
wínni
wéwò
wáyé,
wán
wákàti
wumi
wp16.
woth
worldwatch
wora
wooli
wonyii,
won,”
woléwolé
wohlfahrt
without
wim
willi
willett
wiesława
wic
whitt
wey
werepeninuifa
wenger
wen
weinstein
waziri
warren
wald
wakọ
wak
waju
waj
wafu
wad
votes)
volks
voa
vlorë
viva
vital
vir
violence
viktor
victory
victorine
vetus
vern
vaz
vau
vasil
vamvas
valle
valença
valentin
vagin
uzoho,
ussr
used
ursu
uns
unp
universit
unity
umu
ulrich
ukrainian
uhuru
ugwuanyi
ufa
tẹẹkotọ
tẹyin
tẹru
tẹri
tẹlif
tẹle,
tẹgb
túwít
tújúká
tóòrùn
tóbì
tíṣíbì
tíṣ
títànyòyò
tírájánì
tírá
tíkẹ
tía
tìṣ
tìyẹn
tìk
tìfunt
tìbè
tér
tènìyàn
tásító
tád
tàm
tàka
tàg
tàdínlẹ
tàbọn
tyron
typ
twí
tver
tuva
turki
tuna
tumbun
tulu
tufts
tsvangirai
tso
tsh
true
troost-ekong
troo
trireme
tribal
trent
treasurer’s
travel
trajan
toy
tow
tourists
tourism
totonac
tos
toripe
topi
tooto
tokmok
toilet
togun
tipasẹ
tina
tiffani
through
thr
thoreau
thie
the·osʹ
these
theory
them
thecanonisationofterror
thayer
th
teradion
tera
tenu
teide
tegbò
tec
tayo
tas
tarìgì
targum
tanya
tand
tanaka
tamba
talénígba
talè
takuya
tajudeen
tahùn
tad
ta(
sọnú
sọkùn
sọgi
sọfà
sẹria
sẹn
sẹhin,
súú
sún-kẹrẹ
súlèja
súgbọ
sórà
sóke
sófò
sòkò
sòkè
sòb
síṣ
sítí
sírọ
sírètí
símí
sílétì
síkejì
síhìn-ín
síb
séè
séré
sén
sék
sébúlónì
sèr
sáírúsì
sááju
sátìmó
sát
sány
sánlẹ
sán-
sálím
sájò
ságbà
sáf
sàr
sànmò
sàláàdì
sàlàye
sàba
szi
sz
syri
sylvia
sylvan
suv
susie
susanna
surg
suraang
sum
sulaiman
stsci
strepto
stone
stocks
stern
stephany
steff
stedelijk
stau
start
square,
squad
sportshall
spin
speaki
sparta
soya
sowọpọ
soweto
sop
sookan(
sony
sonny
somaliland
som
soke,
sodo(3-0)
sodo(
soa
snyder
smwwebwewant
smwmothertongue
slo
slave
ske
siṣ
six
siwe
sisami
sipo,
sip
sinimá!",29
sinai
silva:
sigurd
sigbakeji
siegfried
sidne
sidd
sic
shuaib
shinto
shari
shares
shane
shamra
seydi
sev
ses
serap
seranlowo
sepp
senu
sena
self
seku-pa
seklucjan
seismo
sege
segbe
sefilọlẹ
sebin
schwa
schaff
saxony
saxon
sarg
saratov
sanwo-olu,
sanj
sanc
samar
salva
saleh
salami,
salami
salam
sakura
sajẹnti
saisan
sahidic
sah
sagbe
safefe
sabẹwo
sababi
saarin
sa,
rọrí
rọ-a
rúru
rúnsè
rúnpá
rúg
rùntìrò
rùndún
rùjẹ
rö
róṣ
róm
ródésì
ròfó
rít
rísípà
rírakakalé
ríg
rìndínlógóje
rìn,
rìkísí
rìd
réu
rés
rél
réhób
ráùn
ráà
ráyé
rápálá
rányàn
ránpẹ
rálè
ràpadà
rànyàn
rusk
rus
rule
rugby
ruble
roz
row
rousseau
rotary
rosemar
roré
romanus
romano
roll
rogún
rogun
rivoire
riva
rirọ
rir
rind
rile
rig
rick
ribẹ
ribeiro
rg
reynolds
rev
return
resta
respect
res
rere,4
repr
reli
relations
related
reina
rein
rege
rede
reb
reading
rdmb
raúl
rarotonga
ranyin
ranlè
ranko
ramón
rajesh
rainrain
raburabu
raba
quito
quebec’s
quarter
qi
pọlọpọ
pẹrẹṣẹ
pútì
pútéólì
púrímù
púr
pòr
pòp
pís
pírámíìdì
pír
pípẹja
pípòkìkí
píparun
péè
pésísì
pélétì
páárì
páyà
pátíà
pátakó
pásíà
pákí
pádi
pá-
pàáp
pàs
pàrá
pàká
pyrenees
pyongyang
purp
pup
pun
puigcerdá
pru
prote
privilege
priscilla
principles
prim
prentenkabinet
pray
practice
pp
pound
port-
pool
poll
politics
poetzinger
plus
pl
pitt
piraiévs
pip
philosophy
philadelphia
peterson
pese,
pereu
pepele
pelo
pelle
peg
pediatrics
pe,a
pd
país
pa·rou·siʹa
pawọpọ
pati
patanmọ
pasteur
pascal
pasan
parun",16
parti
panther
panfílíà
palu
palsy
pakà
padua
pack
pablo
paar
o’dam
oṣere,
oǹd
oświęcim
ońjẹ
oľga
oú
oyín
oyéde
oyo-ita
oyew
oyegun
oyedepo
oya
ox
oworo
otí
otter
ott
osẹ
osuwọn
osuitanaduniunitedkindgom
oster
oss
osowobi
osi,
osa
oríṣ
orí-i
oron
orli
orlando
orilade
orienta
ordega
orchid
orbeliani
opc,
oníyanrìn
onítẹríba
onítá
oníròbìnújẹ
onírì
onípẹ
onínà
oníkẹ
oníkòkó
onígbéraga
onígba
oníga
onífá
onídò
onídì
ontẹ
onk
onitọun
onirese
onir
onigbàgbọ
ondibo
omok
omobibi
omo-wewe
omo-ogun,
olúṣínà
olúyọ
olúkọ
olúkúlúkù
olúf
olùrán
olùpilè
olùmú
olùjé
olùg
olówùú
olówó-
olórí-burúkú
olór
olól
olójúm
ológeere
ológ
olympia
olya
oluṣọ
oluṣ
oluwa,
olutoye
olusọ
olume
olugbẹjọ
oludamoran
olubu
olson
olotu
olosu
olor
olohun
olododo
olat
olag
olad
okurounmu,
okoroafor
ojúù
ojútì
ojúran
ojúayédùn
ojú-u
ojule
ojoisinmi
ojisẹ
ohun.
ogúnjọ
ogunt
ogunpa,14
ogunjọ
ogun.
ogun-
ogorun,
ogoni
oghenekaro
ogede
ogbè
ogbomọsọ
ogbodo
ofi
odùyẹmí
odindin
oche
oc
obìnrin-
obedi-édómù
obay
obanikoro
obalende
obabinrin
oba,
nọọsi
núklé
nóf
níọ
níṣinṣin
nítùbí
nítòótó
nítorì
níl
níkẹ
nífò
níbòmì
ní-í
nìyà
nìp
nétanáyà
néf
náí
náìlì
náà-
nàá,
nàtaníẹ
nàmó
nwankwo
numa
ntún
ntí
nsuk
nso
nscdc
nsa
npm
npfl
nou
nní
nisẹ
nisin
nisanu
nirọlẹ
nir
ninalowo
nileewosan
nile-i
nikawo
nikale
nigi
nigeria),
nigeria)
nigel
nigberiko
nic
nibi:
niamey
nhrc
ngógó
ngozi
ngobe
newsbytesnow
nema,
nelma
nellie
nel
nef
nebu
nebrija
ndo
ndidi,
ndidi
nbo
nbc
nathaniel
natali
nasiru
narcissism
namangolwa
nama
naira)
naijiria,3
naijiria(n
nahùn
nagoya
naga
nadezhda
nabopolásárì
nabataea
naa,”
naa,ti
naa,k
naa,a
n...,23
n-n
n'i
m’
mọra,
mọnyan
mọkanlel
mọdọ
mọdún
mọbẹ
mẹẹ
mẹwàá
mẹtalel
mẹsàn
mẹrinlel
múy
múwá
múrí
mùsù
mùn
mùjẹ
móṣ
móráyà
móló
mítí
mít
mísír
mímúratán
mímúni
míkímásì
míkím
mígíd
mí-èṣù
mí-
mìíì
mìíràn.
méṣ
méwaa
méta
méródákì
mém
méjìdínlá
mégídò
máónì
máwọn
máw
mátít
másé
másà
máse
márú
márùnléláàádóje
márùn-dín-nírínwó
máné
máhílì
máalọ
màr
màlá
mystreetgospel
mw
muy
mutiu
musa,
murzynowski
muri
munta
muh
mua
mozambique,
moussa
mour
motu
moshe
morile
moretus
monte
montag
mokanlela
modu
modi
moc
mobile
moa
mmr
mixe
minas
mimo,
million,
migration
microsoft
microbes
micah
metz
metropolitan
metr
metalelogbon
metadinlogo
metadinlogbon
mess
mental
mejilelọgọ
mejilelaadọ
mejidinlọgbọn
meji-
mec
mckay
mbappe
mayer
mauthausen
mauritania,
matti
mati
matheakis
mateusz
maseiso
marundinlaadọta
marundinlaado
martín
martial
marsh
marl
marika
marelius
many
mandy
manage
malawi
maji
mainichi
mahrez
mahanoro
magí
magufuli
mage
mafiza
madi
madagascar,
macky
machine
mabinu
l’a
lọw
lọrọ,
lọmọdé
lọmè
lọj
lọgan
lọd
lọbẹ
lẹṣin
lẹrin
lẹní
lẹbọ
lẹbi
lẹ,
lúmọ
lóṣòó
lóǹkà
lóók
lós
lóríṣ
lóp
lónír
lónìí,
lókúta
lójo
lófo
lódi
lòní
lònìí
lògún
lítíréṣò
lís
lílẹ
lílè
lík
líjíónì
líg
líd
líbínì
léṣìí
léèé
léèwọ
létí,23
lémibádé
léhì
léh
légbèje
lèṣ
láìṣà
láìṣeé
láìretí
láìníjàánu
láìgbà
láìfì
láìbẹ
láìbéèrè
láàà
láàt
láàr
láàgọ
lázaro
láwé
látọwọ
látìnì
lánà
lálùbolè
lákó
lákòó
láká
lájọlájọ
lájẹjù
lájá
lái
lágbàyé,
lágbàlá
lágba
láfẹ
lábàwó
làṣà
làà
làlà
làbù
lyova
lyn
luzon
luo
lukaku
lugar
ludwig
lucie
luanda
lu,
lp
loyun
lowo-lowo
lorílẹ
lorun
lorain
lopopona
lopetegui
lootọ,
loore
longe
loli
lokunkundun,
lojoojumo
lojo-ru,
lojo-bo,
logb
loc
loba-loba
loba
lob
lives
litireso
lis
linz
lina
lilian
liberty
levy
lessing
lepr
lep
leonid
lemi
leme
leko
leka
leh
legend
leganes
legal
lef
leemarys
leandro
lb
lawn
lawan,
laurence
latí
lassoued
lasi
lasan,
lasa
larugẹ,
larugẹ
lariwa
larissa
langton
lancet
lampard
lambert
lalè
ladoke
ladipọ
labuja
labour:
labi
labele
laanfaani
laan
laamu,
laaanu
l'oṣu
l'eko
l'awọn
kọṣẹ
kọrùn
kọrinkọrin
kọnilominu
kọlọ
kọl
kọkànlélógójì
kọkàndínláàádó
kọkàndí
kọkàn
kẹrìndínlógójì
kẹru
kẹrinla
kẹjì
kúyò
kútúpà
kúl
kúbà
kùl
kóòmù
kótó
kóré
kóbá
kòròfo
kòo
kòlàkòṣagbe
kòkòrò-àrùn
kòkòrò-
kòd
kò-t
kíìrì
kíyèsì
kírísítẹ
kíri
kíkọjú
kíkọbiara
kíkọbi
kídírónì
kíbi
kìínní
kìtà
kìní
kérò
kékèèké
kébárì
kébimápàlú
káú
káárí
káy
kásí
kárùn-ún
kákò
kádím
kày
kànlélóg
kànlél
kàndínláàdọ
kyus
kwe
kw
kuwait
kuro,
kurgan
kro
kristì
kre
krasno
kotemilorun
kostas
kosovo
koso
koriko
komp
komo
kolofin
kojúu
koj
koichi
koe
knowledge
kj
kiw
kitchen
kishi
kirun
kirsten
kirisit
kinni-in
kikuna
kiku
kikida
kig
khr
khachatryan
keyamo,
kewaa,
ketly
kesia
kerala
kenyon
kendr
kelsey
kekkonen
kejìdínlọ
kejo,
kef
kea
kaìgbómìnàyorùbá
kaìgbómìnà
kazan
katakara
kast
karún
karùndínló
karim
kardec
kaori
kann
kank
kanb
kan;
kan',15
kaluku
kakuma
kakaǹfò
kajuru
kaj
kaiser
kag
kadeṣi
kada
kaan
jọs
jọdá
jẹw
jẹgb
jùú
jóṣá
jósábádì
jós
jíyìn
jíjìnwọlè
jíjoògùnyó
jétérì
jég
jèhóṣébà
jáélì
jáwe
ját
jáde,3
jáde,
jànkànjànkàn
jàndu
jàk
jàjàyè
jurgen
jud
joye
joshua,27
jord
jong-
jong
jol
jokoo
jochen
jiyan
jinle
ji,
jhvh
jessie
jenn
jenkins
jem
jeki
jehóá
jeh
jared
jannaeus
jankan
jana
jamiu
jamie
jamani
jaja
jagunmólú
jagunlabí
jabẹṣi
iṣẹṣe
iṣú
iza
iyọn
iyikoto
iye-
iyanda,
iwì
iwájúu
itanilumasee
itaniji
itani
italy,
itali
isà-òkú
ismaila
isimi
iselu,
isekupani
iseku
isegbe
ischl
irúnmọlè
iroré
iroju
irir
irinna,
irawo
iranse
iranlo
ipàdé
ipn
ipaya
ipalẹmọ
ipa-ọ
inúrere
inú-dídùn
invi
investment
investigation
insp
inne
inge
industri
independence
ind
incon
imọtoto
imura
imototo
imohimi
iléìf
iléèwòsàn
ilé-ayé
ili
ileri:
ile-ẹkọ
ile-okere,
ile-itura
ile-itaja
ilaria
ilanil
ikẹrin
ikẹkọọ
ikòkò
ikpea
ikole
iketa
iker
ikawo
ikansira
ijba
ijakule
ihun
igìrìrì
igunnuko,
igbé
igbákeji
igbok
igbesunmọmi
igbam
igbak
igbaj
ifọrọwanilẹnu
ifọrọ
ifẹyinti
ifáfitì
ifun
ifiya
ifeyinti
ifes
ifehonu
ifawemimo
idupe
iduna-dura
idris,
idiboyan
idibo)
idi-
ibẹwo
iburawọle
ibujoko,
iberia
ibasise
ibalopo
hún,
hùn-
híhó
hìnwá-àsẹ
hìnd
hár
hánámélì
hágí
hád
hypo
hye
humboldt
hove
hour
hotspur
hormone
hoff
histórica
hisp
hiroo
hippo
hilikáyà
hig
herz
hepataitisi
henrik
henley
hend
hena
hen
hellenic
heart
hearn
ha·
haykanush
hayden
haw
hasi
harley
hariri
hari
hardy
hanna
hann
hamme
hameen
hajar
hague
hafiz
hacke
gọta,
gẹgé
günther
gúúṣù
gúùsù
gùn-ún
gólíà
gíwá
gít
gír
gìgí
géérégé
gérísónì
gél
gèésì
gár
gángan
gád
gàr
gwangju
gungi
gun-
gujarat
gui
gug
gs
gross
gregorio
gregg
graz
graf
gole
going
gobir
glover
globulin
glaucoma
gità
gira
gillard
gie
gida
ghe
gese
gerhard
gent
geni
gener
gel
geb
gbọran
gbọnmisi
gbọgbọrọ
gbẹsẹ
gbẹrẹfu
gbòròò
gbíngbin
gbígbójú
gbígbéyàwó
gbígbádùnmó
gbígb
gbìy
gbésẹ
gbér
gbél
gbékú
gbédìí
gbèj
gbát
gbàár
gbànja
gbàngbà
gbàl
gbudọ
gboró
gbomimu
gbogboni
gbogbon
gbogbogboo
gbogbogbo-o
gbogb
gbob
gbigbà
gbes
gbenu
gbengasesan
gbebo
gbaṣ
gbaté
gbaradì
gbajabiamila,
gbaja
gbagadè
gbadé
gbade
gbadamosi
gbad
gba-n-gba
gat
gass
garo
ganges
ganganran
gambia,
galadima
gad
g.
fọyín
fọwọsi
fọto
fọpẹ
fọlọ
fọláṣadé
fúrúgbìn
fúnrar
fúnraa
fún,
fùl
fónítò
fólú
fólódùmarè
fís
fínlè
fíl
fífúy
fífòye
fífìyàjẹni
fífiyèsí
fífiyè
fífik
fìwò
fìnkì
féràn
fáyò
fát
fàw
fàlà
fàjà
fà-
fun.
full
frsc
frosin
fr
foúnjẹ
fos
foríkorí
fog
flore
fl
fixed
fità
fiso
fipò
finifini
fine
final
figè
fifetisilẹ
few
feti
feré
ferr
ferese
federer
fed
fbi
fawas
fasiti,
farmer
fari
farawa
farakan
farajin
farah
fam
falua
faina
fagilé
fagbohungbe
fag
fada
fad
faaji
eyori
eyii
exxon
ew
even
ett
etisalat
ethiopian
ethics
ethan
estienne
ester
este
essentuki
esperan
erè
ernesto
erickson
erica
erdogan
equatorial
epin
eniy
enit
encar
employ
ema
eléṣ
eléèé
eléè
eléwù
eléwéko
elét
elékèé
elék
eleto-abo
elet
elek
eleg
eledumare
eld
elbe
el-zakzakky
ekú
ekù
ekusa
ekp
ejì
eis
ehr
ehi
eh
egbèjì
efu
efomoloyan
eem
eeka
eed
edinburgh
edgal
ede-ai-yede
ebòlò
eber
eaglets
dẹlẹ
dẹd
dúnnìí
dúnkookò
dúndé
dúnd
dùntè
dójúti
dòb
díò
dísù
díni
dím
díg
díe
dídùndídùn
dídáwó
dìy
dìmọ
dìjà
dìgbàdìgbà
dìgb
dìd
déédé",24
déj
dégbèjì
dég
dédánì
dèé
dáwà
dátà
dámá
dák
dáj
dágbá
dádúró
dádé
dáad
dàlì
dunnu
dunlẹ
dunkooko
dunjúdunjú
dundun
drogba
dp
dowo
dorothea
dong
domingo
doló
djibouti
djembe
dixon
dist
disaster
dioc
dinú
dili
dihy
digb
didur
didaran
dickmann
dial
dha
dewji
dew
desc
deru
dennerby
democrat
demb
della
dell
defen
deep
debenture
daṣẹ
days
daya
datti
data
darijin
dare
dap
danish
dani,
danba
damu
dampier
dakar
daj
daisy
dagunró
dagba,
daf
dadash
dabẹ
dabiri-erewa
daalen
daadaa,
d.o
cádiz
cyprus
culver
cromwell
croatia,
created
cow
count
cote
corona
cornwall
cork
core
cord
cooperation
constant
conde
common
commission)
coming
com/r
colle
collapsed
colin
colette
coke
code
coa
clot
clement,
claus
citizen
ciara
chr
childbed
chich
chere
chee
chatt
charo
charlemagne
charle
chamber
cesare
cerebral
celsius
celebrate
cele
cecilia
cay
cath
castil
cassa
casi
cart
carolyn
carnegie
cardinal
carbohydrate
cann
cancer:
can:
campe
calorie
cae
cadbury
bọw
bọl
bẹẹbẹ
bẹntiroo
bẹmbẹ
bẹbẹ,
bús
búrùjí
bú-jẹ
bùs
bùba
bóṣé
bóti
bórabóra
bíáṣébà
bísí
bípò
bíntín
bíléèdì
bígí
bíd
bíbùkún
bíbójúmu
bíbìkítà
bí-
bìí
bìn
béèré
bétí-
béríà
bél
báńdéèjì
báárà
báálì-
báyí
báyìíbáyìí
báy
báríkà
bání
bádérìnwá
bábá
bàṣírí
bàǹt
bàs
bàná
byrd
burundi',16
burning
burn
bunmi
bukun
building:
buh
bug
budget
budd
brief
bric
bras
braam
bouch
boub
botswana,
bongo
boll
boi
bod
boa
blan
bl
bissau
bishkek
birthday
biorunmilatidiifa
biog
binú
biandrata
better
bessarabia
bernad
berger
benson
belinda
behe
beb
bean
bayii.
bath
basque
bashua
bark
barb
baral
banu
bangladeshi
band
bambar
bama
baló
baltasar
bako
bajíròrò
bahi
badm
babylon
babilóníà
babal
aṣọẹbí
aṣọ,
aṣẹda
aṣèbàjẹ
aṣofin,
aṣeégb
aṣela
aṣaral
aìsi
a·
ayorinde
ayil
ayeraye
ayaa
awú
awùsá
awá
award)
awake
av
aureli
augusto
auc
atọka
atẹji
atók
atò
atè
attack
atta
atp
atijẹ
athena
ateranse
atamátàsé
asáájú
asálẹ
asunrárà
asking
asiat
ashi
asew
asaájú
arẹr
arómirẹ
arógun
arín
arìng
arákùrin
aryan
artur
arts
arole
aroj
arme
arkadya
aris
arinibọmi
ariadne
archeologica
arbitrary
aragon
arabibo
araba
ara:
ara-à
aqua
apópó
apolo
apilẹkọ
apeje
apara
apaguusu
apache
aown
anìk
anu
antipater
anti-
antarctica
antananarivo
anse
anrp
annu
annie
anja
animal
ani-ani
angẹ
angu
angeli
angel
andrás
ande
anatoliy
anan
analysis
amúnil
amúl
amúg
amóríwú
amáyé-dẹrùn
amuye
amuneke
amun
amosun,
amir
amioro
amino
ambrose
amb
amanda
aman
amala
alẹnulọrọ
alú
aláìtójúúbó
aláìs
aláìnírètí
aláìlèṣá
aláìlèsò
aláìlábààwó
aláìlá
aláìgbà
aláyẹyẹ
alátọ
aláti
alátako
alásọt
aláròób
alárékérekè
aláràn
alákùnrẹ
alákìísà
alákànp
alákitiyan
alájọbí
alái
alágbèé
alágbá
alágbàfọ
aládì
aládàáwà
alábàáṣègbéyàwó
aláago
aláa
alàá
alva
alupupu
alonso
allegheny
alkali
alie
algi
alfa
aleṣan
alexei
alexandrinus
alexandre
alelúyà
alec
albin
albatross
alba
alatishe
alapinni
alam
alal
alaki
alake
alak
alaisi
alailo
alail
alagbelebu
alafojuri
alabojuto
alab
al-m
al-i
akọsọ
akọl
akúrí
akóṣé
akóniṣiṣẹ
akínyẹlé
akínwùmí
akànṣé
akume
akoonu
akinlolu
akinkanju,
akh
akete
akasọ
akanda,2
ajunilọ
ajulo
ajs
ajo-isokan
ajihinrere
ajia
ajas
ajao,
ajala
ajag
aisa
airtel
aip
aili
aik
aigbe
aif
aidunu
ahmed,
aha
agẹ
agùn
agánrán
agunbaniro
aguiyì
agui
aguero
agbórin
agbéniròkè
agbáw
agbolé
agbejade
agbed
agbaja
agb
afọl
afúnniló
afurasí
afrobeat
afr
afolayan
afini
afenifere
adímú
adéṣínà
adéní
adárúgúdù
adáríp
adámú
advance
adrián
adrienne
adriatic
adota
adis
adichie
adeyẹmi
adewọl
adewuyi
adewu
aderibigbe
aded
adebanji
adc,
acro
according
accord,
acco
abẹokuta,
abúmó
abúlée
abìyẹ
abánitó
abrahamson
abori
abis
abiru
abiola,
abiodun,
abiniṣubú
abim
abid
abdulras
abdullahi,
abawo
abass
abanil
abamieda
abameta,
abam
aawe
aadorin
aado
a-lá
@m
:“
80,000
628
612
6,6
5:
580
536
522
5,1
480
4,6
38,
350,000
336
330,000
330
32,
254
251
20:45
2023
2,2
1:
191
1891
1888
1887
1885
1880
1853
1638
1560
1545
1492
1200
11:
1026
1-2
1,8
1,6
1,4
-ọnà
-òfin
-ìw
-ìsàlẹ
-ìr
-ìní
-ìb
-wọ
-samson
-p
-joke
-ibi
-aje
,won
,so
,ol
,nibi
,lasiko
,inec)
,e
,ad
(ọ
(we
(vo
(us
(the
(ro
(nu
(nf
(monday)
(lo
(le
(lautech)
(iwe
(ha
(fe
(cr
(bursaspor
(ar
(af
(@ngsupereagles)
(40
(1),
'torí
'r
'oògùn
'obinrin
'champion'
'bi
'b
''ọ
''ṣ
''t
''k
''ijaiya
#nga
#n
#c
"ọ
"t
"olutoye:
"joke
"falomo:
",22
""s
""lati
""k
""eyi
""ag
##:1
##99
##98
##95
##92
##8)
##71
##6,000
##51
##5.
##49
##2,000
##03
##01
##/201
##.t
##.j
##.8
##-ọn
##-ṣíṣ
##-ṣe
##-ńlá
##-ń-
##-òkun
##-òde
##-ín-
##-ìr
##-ìbá
##-ènìyàn
##-tà
##-sa
##-pí
##-pé
##-oko
##-od
##-ná
##-nl
##-ni-
##-mí
##-méjì
##-má
##-mi
##-le-ọ
##-le-m
##-kọ
##-kù
##-ké
##-jí
##-jera
##-ire
##-iná
##-ile
##-il
##-iba
##-há
##-han
##-ha
##-gbẹ
##-fu
##-ekiti,
##-din-
##-de
##-c
##-binrin
##-aṣ
##-aka
##-8
##-3
##-2),
##-1)
##,s
##,29
##,28
##).
##(wednesday),
##(th
##'r
##%,
##!!
##″
##…a
##”“
##”ninu
##”m
##’u
##’t
##ọw
##ọsi
##ọri
##ọran
##ọnù
##ọna
##ọm
##ọgọta
##ọgọrin
##ọg
##ọdunrun
##ẽ
##ẹyin,
##ẹwa
##ẹu
##ẹran
##ẹdẹ
##ẹbọ
##ṣón
##ṣípà
##ṣétì
##ṣén
##ṣémé
##ṣág
##ṣor
##ṣinṣin
##ṣeré
##ḿp
##ḿbálì
##ḿ
##н
##м
##д
##б
##ʹk
##ɑː
##șẹ
##ǹr
##ǹgbẹ
##ǹfàní
##ū
##ś
##ńṣe
##ńti
##ńp
##ńgí
##ńgé
##ńf
##ńdì
##ńbá
##ę
##ē
##če
##č
##ć
##ą
##ă
##ān
##úẹ
##úwà
##úu
##úsá
##úrímù
##únd
##únb
##úmá
##úlé
##úlè
##újẹ
##újé
##úhám
##úfà
##údùn
##údù
##ùù
##ùu
##ùns
##ùnmọ
##ùmarè
##ùlọ
##ùgbọ
##ùgbẹ
##ùdù
##ùd
##ùbọ
##ùb
##ù,
##ø
##óyaró
##órè
##órá
##óná
##ómú
##ógójì
##ódùmarè
##ódó
##ódi
##óbìnrin
##óbá
##óbi
##ó-lé-ẹ
##òót
##òyìnbó
##òyè
##òtó
##òsàn
##òs
##òkù
##òjò
##òh
##ògo
##òfò
##òfo
##òfin
##íṣá
##íṣe
##íónì
##íás
##íákí
##íwájú
##íw
##ísá
##ísà
##írónì
##ípọ
##ínmẹ
##ínlọ
##ínlẹ
##íni
##ílọ
##ílo
##íjí
##ígí
##ífá
##ídùn
##íbù
##íbà
##íbi
##í-m
##ìṣẹ
##ìṣe
##ìírà
##ìíra
##ìì
##ìyàndá
##ìsí
##ìròyìn
##ìnb
##ìmọ
##ìmù
##ìlẹ
##ìlì
##ìká
##ìjọba
##ìh
##ìgbọ
##ìgbé
##ìg
##ìdán
##éṣe
##éènì
##étán
##ésárì
##érót
##érí
##épọ
##énáì
##éló
##élè
##ékọ
##éká
##égún
##égbè
##égbà
##ébá
##ètè
##èrú
##èmí
##ço
##är
##än
##áíà
##áár
##áàf
##áwò
##átí
##árú
##árím
##ápa
##ánṣ
##ánánì
##ány
##ánm
##ánd
##ámú
##ámì
##ámé
##ámá
##ám
##áló
##álè
##áhùn
##ágbá
##ádìí
##ábí
##ábé
##ábà
##àì-
##àál
##àyí
##àtọ
##àtú
##àri
##àre
##ànù
##ànt
##ànlél
##ànkan
##àkò
##àkì
##àko
##àgọ
##àfòmọ
##àdí
##àbọ
##à-k
##·p
##·na
##·mahʹ
##·go
##·a
##zzo
##zul
##zr
##zole
##zl
##zin
##zet
##zed
##zcz
##zat
##zak
##yẹn
##yẹmí
##yùn
##yíd
##yéd
##yy
##yst
##ysa
##yri
##yph
##ype
##yli
##yinka
##yelo
##yeh
##ych
##yat
##yas
##yanran
##yale
##yaa
##xl
##wọra
##wúrò
##wòta
##wál
##ww
##wuy
##wura
##wr
##wos
##woorun
##women
##wo,
##wetan
##wei
##wards
##wani
##waha
##wag
##w)
##vre
##vos
##voice
##virus
##via
##vers
##uve
##uur
##utù
##ussia
##urù
##ury
##urance
##uran
##upt
##upo
##unji
##unity
##unia
##ulture
##uja
##ugun
##ugbo
##uchi
##uch
##uas
##tọkàn
##tùn
##tít
##tís
##tìmù
##tér
##tàkìtì
##tàk
##tàb
##tw
##tut
##tuntun
##tul
##try
##trum
##traff
##toum
##tongue
##to,
##tko
##tiwa
##tito
##time
##tii
##tide
##thro
##thing
##thia
##thal
##tete
##tet
##tesiwaju
##td
##tani
##talk
##s’
##sọrọ
##sónì
##sípò
##sìgb
##sàl
##swa
##sw
##sur
##suo
##sugbon
##su,
##stu
##stra
##sthenes
##sthe
##stant
##stance
##sso
##sser
##sop
##soll
##sog
##sofin
##sod
##ske
##sisẹ
##sinyìí
##sik
##sig
##side
##sibe
##shan
##shah
##sg
##seyi
##sew
##sere
##sepo
##sem
##sei
##seb
##se-
##sd
##schaft
##sas
##saki
##saka
##sai
##sa,
##r’s
##rẹmi
##rẹgẹ
##rùk
##rírì
##rírun
##rír
##rípo
##rímónì
##ríkà
##ríko
##rìnwá
##ráyà
##rát
##rámù
##rud
##ru,
##rst
##rson
##rsen
##rri
##roye
##rov
##roti
##roro
##ropo
##ronic
##rone
##rom
##rodu
##rman
##rma
##rlem
##rj
##riy
##riti
##ript
##rion
##rio
##rinwa
##rino
##rilẹ
##ride
##rick
##rge
##rell
##ref
##rec
##rci
##rch
##rc)
##rawa
##raw
##rara
##rapo
##rang
##radi
##rada
##qvist
##quit
##quie
##quar
##pẹkun
##pím
##pèj
##páta
##pán
##pád
##pv
##ption
##pti
##press
##ppa
##pot
##pos
##poro
##popo
##polopo
##poe
##pn)
##pil
##phr
##pese
##pele
##pata
##parun
##papọ
##pam
##palè
##oya
##oxi
##ower
##ourg
##oura
##osẹ
##osta
##osit
##orù
##oró
##oruba
##ors
##ork
##orile
##orce
##or,
##opol
##oowo
##oot
##oor
##ooo
##ook
##ono
##onn
##ones
##oms
##omon
##oloo
##olongo
##okò
##ojúmọ
##ojogbon
##ograph
##ogl
##ogba
##ofo
##ofe
##ococc
##oam
##oac
##n’
##níyè
##nír
##nípakúpa
##nígbà
##nìn
##náà
##nát
##nv
##nupè
##nuj
##nu-
##nter
##nsì
##nra
##nque
##npo
##nnú
##nnil
##nma
##nlógún
##nkẹ
##nkun
##nku
##nke
##njọ
##njẹ
##nje
##nist
##nish
##nise
##nins
##nimó
##nilójú
##nilé
##niger
##nibi
##ni-l
##ngt
##ngodo
##ngha
##ngbò
##newsyoruba
##ners
##nell
##ndí
##ndì
##ndon
##nda,
##nati
##nat
##nar
##nami
##naira
##n/
##n-g
##mọye
##mọb
##mọ,
##mùk
##míì
##mìnira
##máṣ
##máà
##máyà
##máwòrán
##máw
##más
##málí
##mák
##màn
##muṣ
##muy
##mulo
##mpi
##mosu
##mori
##mora
##mons
##moniyan
##moni
##mola
##moju
##mmy
##mmi
##mk
##miyan
##miss
##miri
##minisita
##minira
##mimo
##mi-
##mf
##mesi
##meri
##ments
##medi
##mede
##mawo
##maw
##mari
##mam
##mah
##madu
##ma,
##m.
##lọg
##lọ,
##lẹw
##lùk
##lór
##lónì
##lóde
##lòpọ
##lét
##lérí
##lélógún
##léláàádó
##léka
##lé-m
##lé-
##láwọ
##lágb
##lyt
##lya
##lum
##loye
##lopo
##loni
##lom
##lokun
##llin
##llia
##live
[...]
